<unk>
<s>
</s>
▃
<sep>
<pad>
<mask>
<eod>
▁
,
▂
的
。
！
（
）
，
：
；
？
、
了
是
我
:
在
有
?
和
)
(
不
这
也
你
他
就
都
人
“
个
”
.
为
年
对
一个
—
上
说
一
!
很
;
-
看
》
但
《
1
自己
中
与
还
...
而
之
会
好
可以
于
/
多
到
大
种
要
等
2
被
没有
什么
们
能
那
做
想
最
她
只
就是
子
道
去
来
3
问题
月
=
并
中国
下
性
我们
小
当
以
更
没
让
用
后
因为
工作
可
家
从
如果
给
又
生
时候
还是
知
觉得
然
不是
者
把
4
现在
过
或
章
吧
已
经
时
怎么
出
法
喜
点
5
所以
啊
吗
欢
高
里
本
话
着
很多
应
且
三
这样
地
将
如何
发展
新
再
及
·
可能
由
该
面
日
总
每
次
]
[
式
长
第
外
公司
第一
管理
然后
时间
区
开始
其
10
化
呢
些
6
需要
生活
间
或者
跟
打
%
部
成
感觉
它
书
技术
主要
前
比较
作
节
真的
大家
不能
专业
所
一些
基本
那么
得
研究
不会
企业
力
行
吃
比
国家
机
产品
二
解
才
线
方
进行
~
信息
其他
太
无
游戏
名
天
使用
服务
买
这些
少
8
7
如
学校
其实
度
头
器
不要
一直
一下
开
世界
学习
类
一样
样
近
室
却
市
男
s
个人
设计
"
发现
情况
量
全
通过
找
社会
朋友
这么
包
～
玩
第二
一定
爱
选择
内
期
女
位
最后
经济
友
一起
重要
事
东西
学
【
一般
】
走
心
山
分
水
大学
各种
请
不同
虽
县
文化
以及
非常
底
关
系统
教育
希望
孩子
像
影响
美国
级
学生
同
别人
员
成为
至
回答
使
内容
另
村
场
够
9
边
认
先
起来
0
四
方法
物
师
20
哪些
立
其中
感
特别
老
12
队
问
两
条
各
自
身
电影
路
文
手
见
所有
提供
张
比如
不过
两个
后来
写
怎样
历
事情
哪
此
按
一次
市场
几
地方
同时
体
品
能力
你们
第三
听
国
首
相关
谁
案
入
带
待
是否
率
项目
积
一点
目前
要求
国际
即
A
向
卡
儿
老师
日本
万
生产
组织
功能
历史
建设
那个
变
色
国内
支持
出现
基础
拿
车
口
主
制
局
意
王
11
五
乎
直接
以后
叫
斯
任
方面
结果
气
+
关系
手机
商
体验
以上
钱
米
环境
安全
许
B
网络
正
德
括
处
原
来说
李
知乎
北京
尔
起
」
放
称
字
城
负责
片
加
照
完全
分析
30
城市
号
活动
15
题
特
*
低
指
图
定
「
别
元
发生
_
原因
毕业
办
业
动
除
应用
型
数据
过程
甚至
具有
全国
C
回
病
门
不好
数
投资
评价
题主
利
存在
S
自然
属
强
行业
花
真
完
答
获得
发
黑
件
有限
较
几个
金
差
控制
----------------
干
副
作品
曾
用户
任何
故事
女生
开发
院
光
根据
军
这是
推荐
妈
死
服
美
参加
怕
某
努力
建筑
上海
克
品牌
赛
父母
理解
讲
白
处理
拥有
部分
16
解决
每天
岁
只能
款
教学
中心
有人
同学
英语
质
工程
西
艺术
么
建议
标准
简单
关于
得到
费
风
100
算
音乐
概
理论
明
成功
重
类型
介绍
无法
念
难
反
刚
挺
科
语
有点
考
必须
进
单位
最大
网
则
连
相
容易
科学
教
台
黄
实现
出版社
知识
提高
产生
站
效果
清
球
非
简介
18
周
视
优秀
多少
运动
建
注意
往
跑
T
店
经常
约
海
决定
代
操作
行为
园
权
质量
现代
因
世
经验
选
科技
越
红
单
作用
陈
形
里面
网站
软件
东
声
南
双
平台
心理
啦
阿
不错
职业
懂
因此
掉
人生
州
住
完成
提
流
受
真正
界
快
情
帮助
以前
告诉
校
作者
法律
形成
刘
50
遇到
价格
医院
客户
普通
言
您
治疗
条件
状
考虑
结构
进入
代表
保护
理
改
小时
今天
民
观
一年
实际
接受
房
第四
2010
坐
正常
省
综合
推
家庭
才能
改变
随
继续
帮
水平
系
合作
准备
圈
林
建立
关注
集
离
石
男生
模式
于是
施
达到
传统
制作
不断
看看
拉
之一
具体
培训
角
目标
左右
适合
战
坚持
表现
资源
版
层
认识
兵
14
地区
机构
马
楼
一天
占
镇
六
com
群
转
项
盘
精神
逼
未来
肯定
程
华
等等
实验
换
家里
突然
届
旅游
公里
初
设备
出版
重点
I
靠
送
语言
方向
读
神
一句
素
龙
系列
不到
'
位于
领导
采用
奖
P
计划
经营
y
穿
块
导致
销售
x
人类
医
价值
目
合
2009
视频
身体
管
政治
料
确实
找到
平
工
指导
>
意义
男人
收入
e
一切
毕竟
本人
不用
相信
13
学院
说明
2011
政府
高中
谢谢
业务
拍
状态
整个
班
附
百度
the
设
E
求
2008
根本
河
北
油
报
宝
板
馆
安
第一次
古
利用
具
堂
论
规定
感受
香港
D
未
万元
人物
行政
增加
弃
通
女性
农村
简
时代
演
份
思想
志
段
d
以为
健康
亩
眼
共
景
喝
述
提出
人员
人民
音
星
有效
达
公
七
值
夫
均
阳
直
许多
团
搞
火
结
越来越
各位
义
仍
以下
嘛
电子
士
收
表示
小学
曾经
规划
过去
造成
M
机会
心里
25
味
然而
年轻
表
现
需求
早
材料
http
新闻
领域
类似
常
g
空间
基
自由
症
考试
明显
产业
台湾
取
组
词
至于
程度
a
&
史
录
获
女人
啥
交
厂
卖
哪里
货
最终
广告
生命
集团
2006
F
格
食
云
偏
从事
八
事件
经过
减
含
17
实施
电
影
2007
源
价
厅
愿意
便
画
40
交流
百
乐
药
讨论
变化
朝
加入
热
×
三个
of
距离
政策
全部
信
无论
领
任务
菜
酒
范围
座
电脑
G
补充
专
创新
侧
纳
一段
比赛
相对
丰富
先进
独立
人口
显示
目的
程序
篇
据
伤
2000
大量
小说
现实
倒
例
我国
感情
成绩
渐
联系
N
参考
久
丝
办公
所谓
商业
纯
评论
解释
网上
微博
图书
害
晚上
金融
粉
保持
课程
如此
微信
半
农业
大部分
江
记得
培养
结婚
汽车
回来
爱情
工业
剂
官
关键
24
课
患
想法
交通
专家
杨
特色
尤其
位置
兰
资料
带来
超
调
2012
灯
皮
保证
似
核心
人才
思考
装
远
制度
团队
稳定
21
亿
超过
空
微
一家
短
余
分钟
第五
严重
哭
户
分享
压力
参与
数学
不管
及其
即使
全面
角度
良
明白
学术
九
深
申请
不少
狗
传
显
2005
记
描述
接触
优势
方便
季
满足
为主
60
剧
R
句
实在
文学
真是
部门
来自
姐
计算机
借
教师
接
银行
留
受到
著名
照片
形式
自动
真实
岛
回家
ing
十分
确定
习惯
牌
田
移动
L
肉
境
绝对
m
多年
活
氏
遍
酒店
提升
成本
检查
适
证
H
风格
结合
编
er
好好
互联网
宗
分别
尼
曲
架
民族
幸福
英国
今年
速度
鱼
80
文件
W
电话
衣
永远
望
19
积极
教授
交易
会员
何
轻
★
生物
联
妹
皮肤
追求
势
配
组成
平时
汉
开心
面对
长期
丽
本来
乡
极
发表
最高
博士
mm
吴
诗
追
就算
委员会
笑
不可
背
端
贴
叶
值得
香
慢慢
设置
十
性格
阅读
罗
炎
歌
若
认真
高考
治
本科
不多
必要
V
一条
毛
中学
出去
劳动
训练
木
著
看着
派
宣传
2004
创业
卷
意思
足
实
引起
自我
正确
@
表达
事业
人家
背景
峰
样子
步
执行
不仅
概念
更新
科研
客
晚
接口
尺寸
谢
飞
清楚
媒体
研究生
力量
享受
and
22
年代
吃饭
K
共同
哦
机械
营销
--
波
动物
唯一
区别
发布
主任
全球
文章
根
不敢
医疗
卫生
一位
高级
亦
w
脸
安装
X
冷
族
不够
特殊
精
读书
员工
好多
性能
父亲
说话
原来
图片
J
实践
国外
电视
责任
快速
宽
技能
}
兴趣
{
成长
韩国
声音
相当
农民
弟
欧洲
创造
居
计算
90
现象
箱
角色
p
针对
正在
竞争
德国
酸
其它
草
k
感谢
桥
反应
风险
分手
200
自身
证明
购买
不了
体育
命
b
刻
商品
工具
第六
战略
协会
那样
英
px
既
地图
树
果
2003
铁
街
结束
抱
观点
原则
遇
参数
因素
免费
杀
压
牛
区域
玉
n
血
呀
取得
翻
女孩
社区
布
平均
终于
液
野
资金
c
苏
饭
中央
23
化学
术
套
制造
对象
正式
世纪
社
开展
来源
调查
骂
植物
赵
况
脚
夜
存
o
内心
不如
改革
睡
从来
池
符合
今
易
喷
分类
刀
论文
落
需
咨询
测试
计
担
善
态度
径
英雄
调整
当年
28
详细
托
大型
塔
蓝
加上
错
青
体系
令
消费
食品
唐
阶段
不太
法国
主动
ed
种植
身上
镜
事实
千
止
谈
骨
www
基金
伤害
2016
愿
距
内部
反正
左
轮
推广
良好
仁
26
一件
in
做好
加工
额
养
统一
利益
促进
娱乐
页
to
三年
重新
稍
名称
疾病
临
大多数
例如
庄
周围
思
颜色
注册
平方
工资
最佳
假
经典
’
纸
佛
O
爸爸
主持
主义
承担
大小
文字
创作
摄影
故
逐
胜
\
持续
猫
评
01
速
成员
亲
茶
仅
保险
某些
司
大陆
票
补
笔
记录
大神
合理
刷
党
掌握
导演
苹果
宋
广州
初中
屏
2002
营养
母亲
吸引
估计
惜
l
等奖
梦
编辑
亚
淘宝
过来
技巧
春
支付
通常
恋爱
成熟
挂
中文
变得
圣
甲
先后
运营
产
效
几年
满
意识
农户
思维
母
难道
70
不知
森
册
川
来看
汤
硕士
一部分
监督
宫
斤
固定
雨
象
有个
小孩
出生
日常
500
几天
两年
膜
整体
目录
硬
眼睛
忘
教材
秀
聊天
数量
攻击
逻辑
否
特征
打开
直到
美好
偶
道路
情绪
切
分布
致
第七
一张
至今
医学
会议
不再
巴
欢迎
抓
查
回到
跳
顶
<
乱
财务
2001
痛
怀
赶
后面
快乐
土
1000
放在
临床
君
话题
零
洗
数字
公共
点击
连续
拒绝
^
道理
当地
检测
修改
每年
物理
曰
实力
亮
儿童
年龄
唱
原理
混
版本
动作
感到
库
完美
规范
投
备
湖
i
注
记忆
谷
27
物质
手术
连接
一部
灵
加强
朱
敌
主题
傻
失败
英文
依然
演员
多种
雅
心情
重大
输入
全村
兼
不住
优
意见
工艺
中医
表面
搜索
印象
鸡
运行
形象
武
复杂
担心
沟通
而言
男性
健身
The
帝
动画
儿子
适用
智能
礼
练习
大学生

地位
食物
东北
广泛
恢复
多次
理想
一只
恩
牙
痛苦
青年
重量
分为
化妆
→
鞋
报告
t
心态
体现
判断
忙
职
爸
依
细节
胡
就业
定义
留学
制定
剧情
老板
基地
增长
哲学
败
漂亮
定位
消费者
土地
避免
维护
宁
屏幕
降低
归
战斗
f
奇
生态
苦
贵
限
统计
超级
两种
保障
发行
想想
烧
退
赚
听到
一生
哈哈哈
留下
拍摄
|
失
文明
增
知名
会计
死亡
邀
太阳
银
节目
糖
深圳
ISBN
断
沙
福
再次
案例
雪
蛋
总结
修
复
32
韩
陪
不起
弄
投入
试
辈
读者
集中
完善
雷
规模
方案
宿舍
这一
哥
流行
女儿
旧
徐
厘米
丢
失去
既然
惊
秒
300
天天
姑娘
常见
不得
郎
反对
紧
升级
‘
所在
竟
功
家人
现场
道德
戏
限制
明确
寺
不上
战争
相比
错误
粗
适应
深入
一边
展
兴
动力
仪
邀请
想象
及时
学科
虫
00
围
29
实用
船
•
坏
成就
充分
代理
学位
专门
传播
码
保
夏
妙
排
安排
歌曲
费用
v
醒
梦想
异
足球
私
臣
最新
绝
典
研发
信号
高度
青春
泉
冲
尝试
难以
嗯
剩
古代
祖
人均
防
阴
徒
翻译
认证
电源
软
右
杯
实习
广大
时尚
枪
刚刚
搭
南京
年度
35
现有
能量
巨大
扬
尊重
家长
升
粉丝
忍
处于
盐
索
充满
校园
r
赚钱
宗教
公开
控
协调
涉及
专辑
中间
地球
各个
旅行
观众
伯
尽
末
创建
运
十二
政
销
舞
山东
宝宝
杂志
一本
优质
冬
供
从小
随便
股
有时
广
一场
晓
孤独
耐
令人
细
地址
府
轻松
维
美术
严格
佳
整
巨
下载
普遍
抗
资
提问
改善
....
睡觉
比例
内存
al
旨
迷
破
有着
插
齐
识
困难
预
美丽
独特
温度
独
剑
炒
外国
苗
进一步
素质
奥
皆
铺
讨厌
2015
壁
#
打算
列
生长
同意
运用
顺
魔
排名
答主
委
孙
惠
观察
合同
面前
输出
环
怪
尽量
细胞
真心
人体
骗
U
锅
抽
进步
组合
QQ
可爱
画面
电视剧
圆
西方
打造
45
序
█
情感
击
居住
同一
引
等级
商务
广东
空气
对比
群众
中华
毫米
游
相互
溪
联合
莫
浙江
税
突出
药物
日期
折
施工
1999
四川
机关
手段
腾
感动
迅速
性质
天下
不足
伦
试验
on
伙伴
爱好
●
配置
第八
钟
不算
便宜
更是
物流
兄弟
身份
包装
抢
PS
勒
前面
吹
常用
上课
模型
神经
承认
诺
大众
双方
幼儿
人民政府
我妈
h
聊
飞机
少年
谱
呵呵
身高
尾
寻找
构成
藏
行动
怒
配合
味道
冠军
容
荣誉
漫画
展示
高速
导
准确
权利
富
遭
脑
装修
民主
表演
坑
智
公众
孔
住房
营
革命
听说
墙
31
康
好吃
you
哈
厉
招
z
具备
绿
周边
泽
床
松
理事
闻
有趣
有所
温
准
生于
面试
互相
偷
攻
如今
小米
岩
深刻
相同
始终
色彩
想起
上班
资本
完整
没想
消息
1998
长大
众
很难
密
态
说法
庆
熟悉
练
减肥
火车
港
郑
心中
截
嘴
麻烦
关心
婚姻
客观
昌
模拟
爆
回忆
路上
厚
演唱
用来
鬼
平衡
吐
链接
批准
08
停
考研
学历
特性
郭
币
地理
脉
us
挣
瞬间
征
议
状况
印
头发
垃圾
刊
瑞
回复
在线
毒
文艺
炮
大多
人数
寸
配套
脱
平方公
危险
井
耕地
略
去年
守
一块
拖
典型
举
四个
付出
恋
荣
GB
洞
绿色
意大利
题目
强烈
举办
戴
流程
负
帅
平装
前提
联盟
丹
标
重庆
呈
成果
单纯
究
个性
吵
vedio
弱
发挥
父
娘
一套
胸
冰
军事
众多
十年
腿
代码
舒服
品种
生存
开放
天津
盖
一方面
高校
群体
资产
暗
男女
伊
成都
体重
存储
自信
餐
相应
作业
写作
俱乐部
的确
跨
06
载
下午
熟
上市
刺激
凭
支
梁
丑
09
机制
满意
马上
煮
饮食
品质
女孩子
官方
链
贡献
威
突破
装备
纠
胖
研究所
贤
07
乘
经济学
这部
迪
误
散
第九
岸
一步
秦
挑战
or
期待
早上
主席
域
风景
服装
阳光
杰
丁
蛮
虎
ly
永
资格
缘
横
还会
03
评估
Z
演出
爸妈
伟
博
癌
陵
老公
登
吉
出国
规则
铜
顿
玻璃
05
优化
维修
旁边
曼
老婆
明星
瓦
外面
矛盾
1997
智慧
累
收益
两人
添加
爷
1.5
影片
报道
缺乏
办理
尴尬
和谐
训
心理学
采取
金属
封
允许
泰
策略
の
宇
反映
老人
盛
朗
弹
论坛
批
斗
村民
地铁
倍
印度
公园
差异
哈哈
少数
主管
增强
购物
休闲
cm
亡
房地产
好奇
策划
环保
息
Q
胎
吸收
觉
Windows
一旦
必然
跑步
搜
湖南
姆
来到
Y
财政
娜
大师
彩
房间
效率
迹
艳
公路
当代
本质
装饰
参
流量
浪费
恨
昨天
出口
咖啡
1.2
给予
芯片
感染
烟
庙
鲜
忠
黄金
导师
推进
鸟
途
大大
购
否则
告
社交
撕
艺
锻炼
出场
卫
高等
无数
阵
推动
杆
歌手
全市
content
有钱
俩
救
启
图书馆
这句
奇怪
电池
忽
丛
疼
破坏
梅
宇宙
传说
一片
收藏
后期
播放
千万
for
邦
机器
室内
单身
一群
袭
干净
测量
怀疑
正是
彻底
杭州
鲁
积累
杜
注重
调节
恐怖
防止
珠
接近
记者
顾客
铁路
亚洲
耳
登记
黑色
四年
务
浏览
饰
腰
谅
腹
罪
壳
02
多人
----
武器
河南
动态
钢
姜
洛
振
ar
04
再也
协议
己
俄罗斯
仅仅
发达
此时
闹
思路
1996
提前
籍
150
泡
纪念
赢
相处
江苏
艾
毫无
『
急
后悔
作家
秘书
频率
恶
白色
et
400
渠道
不得不
es
zhihu
高三
律
尽管
规律
机场
审计
幅
几次
120
挑
魂
属性
理财
病人
意味
从此
键
放入
潮
湾
CPU
』
设立
敏感
供应
显得
棒
书记
物业
赞
岭
东方
格式
网友
蛋白
容量
诸
民间
键盘
皇帝
鼓励
轴承
女子
荣获
策
造
消失
警察
强调
股票
理性
聪明
保修
灭
一辈子
叔
信用
ー
劝
高效
普
肌肉
形态
露
j
宜
塘
书法
呼
背后
幕
月份
十五
通知
一大
鉴
镜像
访
淡
汁
森林
航空
......
两次
镜头
小区
诊断
拟
本地
隔
泪
模
译
措施
拜
预防
付
塞
十一
通信
紫
针
生日
影视
en
忘记
下降
动漫
较大
武汉
公元
办学
占地
律师
缺
看来
齿
陌生
灰
举行
运输
分割
明明
呼吸
困
设定
抄
定价
不然
价值观
鼻
收费
委员
西安
汉族
1995
一体
相似
精彩
探索
猪
嘉
瘦
元素
分辨
依法
标志
顾
没人
穷
引导
照顾
无限
浅
乌
曹
保存
敏
检验
循环
貌
―
部队
编程
question
社会主义
干部
陆
订
st
辖
2013
it
长得
时刻
粒
琴
赤
蒙
总体
天然
半年
贷款
认可
..
搭配
少女
烤
济
小组
袋
西南
甚
体会
输
慢
外观
航
广场
核
档
隆
材
豆
硬盘
欣赏
工程师
播
沟
犯
裂
犯罪
宾
闲
划
姓
主人
兼职
集体
必
休息
指挥
胃
彼此
骤
裤
薄
基因
离婚
课题
五年
研
肯
废
枝
示范
貌似
地下
尘
一半
好处
伟大
摄像
创
爷爷
丰
创意
一致
早期
问问
甜
公务员
公平
绕
出发
假设
经理
贸易
ia
旗
th
瓶
一路
降
芳
国产
扔
生气
温暖
消
团体
辅助
电力
海拔
秋
炉
提醒
气质
西北
夏天
欲
人文
情节
分配
重复
祥
节奏
只会
庭
渣
一座
滚
硬件
敢
原料
难度
罢
屋
服务器
仿
静
并非
舍
书籍
le
缺点
搬
刑
心灵
无聊
省级
响
一把
.....
热情
有用
实例
实话
抑郁
韵
出门
吓
锋
北方
上学
农
云南
氧
所属
夹
紧张
观念
慕
不让
肾
幸
意外
扎
养殖
腾讯
坛
智商
魏
事物
剪
飞行
扩大
摆
恼
嫌
湿
祝
指标
招聘
再说
种类
他人
凡
转移
信任
现状
第十
1994
随时
各地
仙
蒂
维持
翼
明天
菲
扩展
美容
复习
3000
删
军队
互动
成分
信仰
歌词
难过
家族
收集
近年
居民
造型
署
id
依据
级别
聚
沿
性别
在于
西班牙
中华人民共和国
800
街道
走向
集成
年纪
最低
iPhone
中有
混合
利润
主体
空调
冠
清晰
宣
寄
单元
1993
致力
暂时
辉
命运
逛
刺
南方
吸
纪
腔
暴
̄
el
保留
高端
烦
同志
鼠
app
印刷
午
超市
乃
预测
提示
耳机
舒适
各自
自主
is
覆盖
红色
36
磨
鼠标
上网
编写
ta
岗位
整理
菌
佛教
秘密
竹
确认
频
蔬菜
妇
哥哥
启动
高兴
广西
拼
持
洋
司机
扯
某种
・
大约
对外
护
恶心
车辆
.8
́
在家
表情
`
访问
鼓
顺利
ps
谓
图像
无线
依旧
妻子
获取
股份
函数
魅力
数据库
各项
脂肪
发出
柜
差别
温柔
多数
萨
污染
首次
内置
篮球
予
二十
碰到
2.5
羊
记载
轴
悲
寒
狂
小心
热爱
预算
晋
星期
京
仔细
人工
亲戚
MB
展开
太多
1992
合法
浓
队伍
地震
碎
2.2
概率
碰
蔡
解放
皇
司法
进口
一流
没事
没法
对手
虚
骑
查看
教练
趋势
保健
决策
人士
海洋
不必
USB
密码
认同
浮
欺
个体
证据
档案
法规
喊
授予
肠
躺
董事
可靠
擦
复合
那时
认知
一对
厂商
接下
辅导
分子
通讯
依靠
擅长
肝
虚拟
阁
洲
规格
新疆
险
妹妹
小姐
优惠
鸡蛋
主角
凤
改造
俊
转换
中共
删除
婚
民币
作出
健
疯狂
神秘
确保
贝
建成
2014
灵魂
男子
结论
视觉
胜利
扰
适当
流动
堡
损失
查询
人性
生理
海外
嫁
一级
同性恋
凉
乙
即将
一项
上下
精力
范
开车
尚
外地
北京市
奖励
肩
一颗
停止
当前
殿
倾向
莱
货币
将来
故障
.6
维生素
操
黑暗
适量
平面
一篇
工厂
对面
75
an
稿
深度
有机
等待
防治
矿
发明
层次
著作
u
驻
巧
600
欧
无奈
奇葩
须
审核
证券
同步
一批
异常
默默
引进
地面
美元
上述
亭
美女
尖
自学
不久
薪
反复
免疫
锁
接着
主流
臂
姓名
大力
雄
学者
试试
自卑
便利
入门
童
示
构
麦
苏联
车站
舞台
扣
In
美食
把握
见面
48
广东省
熊
病毒
总统
魔法
沈
上升
原本
优越
权力
佩
文献
测
音频
河北
不怎么
射
撒
咬
支撑
编制
粹
趣
38
书画
纹
柳
共有
柱
和平
网页
电子商务
喂
发动机
窗
1990
护理
水果
西部
苏州
授权
整合
打击
朝鲜
繁
协
劲
奔
顺便
命名
没错
呆
勇
损
随意
寝
尿
没用
电视台
1.1
就行
妖
歧视
这时
找个
爆发
极大
免
到达
大脑
移民
收录
除非
校长
权威
de
财富
装置
自杀
舞蹈
社团
手动
超越
材质
ad
俗
笔记本
抵
指南
路线
纲
胶
模块
石油
安徽
廷
润
莫名
me
不下
专利
珍
爆炸
办事
收获
地上
执
神奇
不停
修复
---
对话
冯
玉米
脂
一两
一面
1988
身材
泄
统治
采购
利于
院校
界面
就读
批评
奶
烈
恐惧
专用
证书
异地
继承
鉴定
实体
责
融
交往
逐步
愤
欧美
境内
直播
乡村
公布
违法
姨
33
2.1
一点点
加油
穿着
前后
置
不懂
日语
寨
公主
仓
协助
袁
审
兹
对应
东南
言论
洁
一堆
半个
领先
尺
洪
新鲜
清洁
合并
爬
脑子
诚信
承
终
博物馆
财
展现
兽
1.3
湖北
伐
顾问
汗
院长
物品
电路
掌
玛
迷茫
强化
助
津
改进
址
可见
逸
颜
加拿大
疏
爽
福建
英文名
总会
合成
分数
い
原始
商家
拆
摔
37
鸣
kg
严
IT
驾驶
舰
盒
女神
框架
Re
一线
大二
舒
ion
耀
讲述
钢琴
烂
检
原创
赢得
卢
公益
天气
摸
1991
ation
希
瞎
一周
一支
5000
化工
拳
margin
奶奶
来讲
三国
分离
逃
技
麻
正好
寻
感兴趣
十八
国务院
辛苦
谈恋
类别
肿
山东省
遗
透明
64
肺
过于
假如
交换
塑料
贾
55
人人
粮食
氛
游泳
般
像素
欲望
坡
桌
牌子
豆瓣
取消
大战
基层
常务
探讨
慧
监控
暴力
算法
阀
拍照
益
专科
槽
男孩
放心
绘画
筒
采
夺
中药
柄
育
这点
猜
中午
山西
定期
砸
一所
食用
药品
浪
岗
依赖
审美
触
为准
护肤
加速
呈现
人会
花钱
偶像
un
应对
十六
三星
遂
血液
寿
时光
带有
羽
驱动
莲
十三
融合
无关
精品
第二次
四大
填
家乡
危害
1984
杂
炸
自行
家具
ro
线路
国民
老年
上帝
民国
霜
¥
迁
抛
案件
吊
特定
禁止
茂
34
ン
义务
语文
恐
妇女
宣布
两者
il
住宅
man
95
进攻
回事
房屋
争
价比
浦
互
识别
伴
均匀
始
面向
斑
从业
於
痘
青岛
加盟
暑假
冲突
党委
高层
涂
财产
转变
合格
赴
全身
乔
释
表明
税收
普及
形码
普通人
传奇
委托
监测
单独
框
汉语
随机
江西
郡
将军
签
消除
囊
周末
短信
页面
am
匿名
劳
眼里
标签
猎
无人
残
认定
古典
彭
脸上
转化
360
村委
即便
0.5
餐饮
杀人
仲
工作者
哲
监管
承受
安慰
回头
边缘
1989
精英
潜
穆斯林
江苏省
甘
上海市
第十一
诚
ang
尤
39
厕所
学员
be
透
能源
2.3
一首
避
ic
发射
1985
圈子
陕西
语音
花园
戒
获奖
天赋
楼上
3.2
辞
党员
布局
遗憾
赋
奋斗
大三
99
缓
引发
营业
灾
考核
命令
楚
秘
消化
消耗
1.4
科学技术
复制
景观
⋯
警
敬
灵活
新型
宠物
打印
不定
创办
煎
通用
壮
内涵
邻
租
床上
廊
旅
贯彻
图形
禁
总面
地质
▽
异性
衰
演技
谋
霞
平常
出于
要说
幻想
客服
作战
前期
最多
莉
茨
事故
电压
1987
出身
工人
十几
确
法学
二级
同年
正面
ine
ω
勾
较为
肌肤
.9
外形
仪器
务工
诗人
几十
种子
1986
潘
怀孕
扶
专题
故意
危机
牵
粘
180
账
.12
微笑
售后
肥
强制
平等
审查
株
召开
ur
到处
威胁
生成
大会
考察
排除
激光
大致
睡眠
3.5
暖
因而
毁
受伤
ter
选手
一代
燕
膀
飘
充电
纵
77
冲击
加快
立体
文科
桶
打工
失望
.7
肿瘤
二次
承诺
南北
一层
发育
口味
49
新加坡
42
一眼
ate
授
隶属
孤
汇
好玩
种种
萌
哒
激动
移
92
苍
狼
随后
抑制
110
医药
学期
际
踢
青少年
全是
.10
邓
成人
立即
二是
电动
唯
主观
–
金钱
html
部长
两天
不良
障碍
吐槽
婆
龄
咋
已有
万人
庞
85
词汇
探
๑
2.0
墓
极其
节能
妻
隐
更大
强度
Android
简体中文
祸
唱歌
融资
╯
录音
3.1
更为
吉他
土壤
深深
逗
踩
at
回国
霍
寂寞
菇
作曲
as
涛
编剧
当事
牺牲
人格
丈
im
PC
ml
盈利
功率
公交
外出
Intel
歉
粮
滑
新人
尊
职工
正规
验证
进程
2.4
相反
东京
斜
钻
课堂
qq
img
砖
忽略
Pro
吕
疯
高手
极端
51
伤心
墨
一时
撞
os
疑
质疑
形容
成年
等于
侠
符
肌
晒
指点
信心
毕
ir
一是
不但
师范大学
市委
竞赛
一番
ie
沉
躲
per
浪漫
.1
孝
宅
关闭
诞生
长江
郁
效应
人事
大一
不见
接收
膏
御
五个
做饭
传输
广播
q
卿
拓展
不高
─
---------------
职责
.2
回报
⊙
规
逝
道歉
伏
微商
干燥
诊
浆
浙江省
体制
鹿
211
抱怨
真相
适宜
显著
旁
甩
违反
优雅
放下
窄
研制
网易
安静
小小
保密
忧
连锁
son
绿化
数码
挤
低于
法院
985
临时
饼
采访
体内
ce
APP
65
爹
师范
贫困
子女
逢
公民
撤
不吃
继
各大
盆
公安
萧
名人
催
演讲
企
候
幸运
进化
赫
审批
中文名
习题
夫妻
手里
束
不该
汪
撩
用途
凭借
气候
题材
58
72
浩
微软
这边
私人
mo
抹
勤
新手
芬
回归
洗净
te
用心
若干
蛇
释放
跪
执法
眼泪
每日
拔
董
停车
age
运作
一人
伪
水利
爱国
鄙
争取
传递
厦门
第十二
多媒体
婚礼
幽
疼痛
帖
一方
环节
河南省
ma
教育部
cn
职能
砍
漠
泥
电流
纤维
阿里
可怜
毫
颇
不止
解析
十四
闪
地域
好评
一门
骑士
不在
帽
蒋
划分
林业
休
瘤
犹
十大
场所
自动化
过度
MP
举报
戏剧
招生
1982
货物
返
传感
苑
逆
穿越
惑
虾
冒
三大
说服
轨
落后
中国共产党
馨
放大
凤凰
辆
匀
re
凯
号码
期望
柏
报警
录取
好久
加班
缺陷
um
生涯
过敏
遗传
罗马
一百
阶
优先
民众
争议
晨
琳
坊
从未
建造
园林
绝望
欠
总有
女主
1983
ac
天使
澳大利亚
一声
震
with
叉
答应
.4
局部
代替
几句
处女
全程
MHz
以此
迫
买房
内地
三十
期刊
II
奉
ne
挖
自行车
羡
乡镇
饰演
游客
98
祭
铃
孟
科普
44
mg
福利
由此
酷
耗
损害
正义
非洲
机器人
250
玩笑
报名
原文
每周
不怕
形状
咯
天地
帕
主机
决
打扮
水泥
笔记
翁
百科
指数
激烈
方位
No
各级
电气
大人
++
学到
出轨
亲自
慢性
辐射
96
ra
江南
ol
幼
养生
隐藏
翔
西藏
滴
战士
一口
戈
偶然
百姓
简历
职务
固
抓住
周期
.3
中介
全省
闺蜜
拿出
习
宏
43
渴望
长沙
扫
莎
男票
顺序
北大
赌
不论
4.2
更换
VIP
逊
唇
坚定
79
阐
文物
兆
偷偷
活性
鹏
人间
蒸
天生
加热
效力
渡
本会
桃
昂
海军
兔子
手法
幽默
试图
前景
3.3
治理
下列
新浪
直径
窗口
中等
稳
眼神
陶
夸
活跃
大气
吨
帝国
早已
联想
收购
1500
批判
按摩
畜牧
好几
防御
奥运会
绝不
人气
榜
远远
ent
旺
筋
氧化
电梯
真诚
放松
房价
一道
清洗
监督管理
塑造
不出
凶
请求
pa
崔
传媒
艺术家
共享
大道
纽约
兴奋
账户
眼前
整形
靖
替代
辞职
变形
恶意
象征
眼中
选举
负面
返回
柔
禅
46
猛
辈子
含义
滤
富有
统
延
荷兰
四川省
遭遇
醉
大于
诗歌
将会
观看
促
1980
舆论
社会科学
轨道
团结
承包
66
羞
悦
陷入
全体
盟
乳
悬
区分
激励
业绩
栽培
扫描
遗址
激情
词语
介
充
耳朵
寻求
捕
赞同
引用
辣
强迫
乐趣
严谨
160
生意
天空
斗争
渔
眉
蓝色
大专
压缩
垫
焦
0.00
答题
血管
裕
模仿
外部
LED
账号
朴
业余
今后
ge
相机
吾
句子
新生
56
崩溃
手指
St
未知
碑
安卓
不满
碧
搞笑
开关
呗
一一
91
入选
唱片
频道
葱
错过
巾
后果
口腔
52
理工
葡萄
41
童年
改编
000
妃
玩具
开拓
阅
进来
愉
茶叶
栏
路面
47
突
讲解
气温
罩
穴
人大
语法
初步
席
一枚
豪
城镇
防守
方言
迈
专项
两三
缺少
模糊
lo
税务
实战
玄
弥
厨房
舟
一刻
◆
十七
IP
旋转
藤
Me
今日
拉丁
姿
巴黎
巴西
辩
电磁
长相
中小
无需
乃至
咒
酱
that
做事
潭
果然
负担
主办
他会
小型
晶
次数
饿
一万
燃烧
一脸
可用
情景
自私
申
犬
挡
卵
仗
裔
麦克
岳
焦虑
上级
起码
不愿
最小
椒
牛奶
瓜
懒
愁
丸
no
赔偿
悲剧
轩
多项
壶
脱离
淫
同行
三次
理科
用品
精心
应急
毅
窝
牛肉
燃
勿
1.6
泰国
精准
不幸
勇敢
作文
快递
颜值
研究院
热水
辛
梯
描写
巡
股东
埃
沈阳
97875
通道
暴露
退出
都市
助理
替
常规
多样
局限
な
第十三
加大
快捷
保养
愈
城乡
细菌
投票
4.1
聘
房产
导航
痒
老子
勇士
弯
捡
旬
提取
魔兽
一带
牙齿
与其
达成
郑州
矣
咸
声明
岂
华为
芽
上映
党组
涨
5.2
疑问
举个
构造
大规模
过年
卓越
勇气
白天
NBA
补偿
便是
申报
扮演
曝光
辑
纳税
棉
现金
惨
人力资源
坪
中小学
情侣
桂
消防
择
高于
86
妮
听听
对抗
学士
五十
.11
93
饮
哥们
创立
辰
糟
哀
拌
se
颈
瘾
净
气体
下班
不说
商标
穗
防护
Google
落实
滩
混乱
电信
首发
剧本
艺人
单词
国王
阔
一阵
管辖
ai
倾
130
强行
截止
起源
纷纷
矮
标题
脏
短期
锦
优良
塑
养成
黄色
发病
远程
盾
友好
ment
独自
资讯
外交
万平方
其余
几百
4000
ch
贞
汉字
度过
so
洗衣
出色
怡
自觉
身份证
沃
公交车
宝贝
别说
天才
染
传承
为此
豆腐
在我
国民党
动手
57
服饰
起床
实时
侯
卫星
曲线
心脏
豪华
延伸
进球
初恋
陶瓷
英格兰
颗
ISO
版权
文档
彩色
唉
by
pro
国有
精致
履行
不爱
骄傲
展览
一看
种族
提交
两位
IC
丘
后续
冒险
创始
博客
诸多
my
自治区
详
中部
荡
眼光
刮
邮件
架构
ip
常年
.5
主力
岁月
演奏
洗澡
得出
二年
1978
大连
桑
胆
from
克服
眼镜
肚子
哈尔滨
ry
赏
4.3
惹
插槽
em
铭
are
热门
暂
公寓
严肃
无力
打破
毛泽东
ive
口碑
悲伤
精华
刻意
深圳市
智力
婴儿
春秋
煤
饮料
生育
好听
混凝土
颂
发起
捷
流传
山水
宾馆
资质
师资
est
蒙古
空中
续
一身
神话
蝶
不易
た
效益
大叔
湖北省
未必
从不
校区
杀死
战术
幼稚
退休
实训
湖南省
前端
掏
芝
股市
一辆
百年
雾
一会
手中
宴
生动
76
发动
主导
祝福
摩
渊
拨
埋
外语
凑
清新
泛
势力
雕
椅
工商
意志
通电
约定
流通
全书
圆形
脾气
别墅
映
测定
六年
越南
54
高等教育
宿
反驳
辩论
服用
投影
季节
碗
轻轻
极限
玫瑰
看上
平安
斩
北京大学
dota
溢
高速公路
宏观
DVD
磁
图案
取代
立法
大街
南部
淘汰
贵州
诉
三角
市政府
很久
崇
县级
首歌
吉林
经费
首都
按钮
模特
战场
析
蜜
ng
霸
io
舌
83
拯救
辽宁
蹲
感冒
有利
友谊
大厦
阻止
初级
石头
北部
our
另一
海南
棚
相亲
好感
干扰
height
扑
恒
之处
湘
猴
IN
ers
匙
发音
冲动
摘
一副
曾任
清华
前进
密度
亲人
81
伦敦
╰
ba
转型
商城
加以
度假
否定
整天
铝
水分
5.1
84
深受
有何
one
CD
尽可能
邪
近代
垂直
欣
绝大多数
Li
1.8
坦克
闭
漏
笑话
物种
注射
反馈
零售
狱
不清
73
残酷
过分
券
鼎
讲究
高大
清水
切换
关节
凌
小白
对照
培
大四
触摸
西医
弹性
尸
iOS
sh
1981
单曲
蛋糕
营造
役
啪
沉默
单一
荒
福建省
迎
流畅
极为
男主
坝
发言
颗粒
薛
算了
通俗
士兵
凌晨
痕
再见
高一
祖国
有过
精确
隔壁
撰写
期货
顷
无意
栏目
你好
终端
视为
宁波
醒来
分泌
承办
符号
关联
韦
奈
co
教研
辉煌
盈
腻
ot
奢侈
La
割
酶
220
240
竞
sp
播出
身为
陪伴
面包
min
し
善于
杰伦
东莞
外界
平凡
尚未
知识产权
新建
二人
baidu
黄河
1979
澳门
官网
发送
爱上
一千
97
起点
消灭
诀
De
鸭
兄
一根
立场
家居
当今
一顿
多多
过滤
乐器
63
泵
饭店
散文
担保
投诉
阿尔
趁
河北省
无疑
明年
分解
灌溉
当作
其妙
番
第十四
贺
早餐
红包
ass
急性
嘲笑
颁发
不宜
遵守
带动
国人
酱油
艰难
文本
拼音
绘制
礼仪
喜剧
老大
这类
讨
狭
受害
鸿
转会
什
取决
编号
廉
江湖
〈
画画
挖掘
end
非法
https
li
夸张
勉强
科目
碳
59
招商
高二
本土
培育
画家
体积
GT
昨
堆
万一
转发
糟糕
便捷
医师
前任
报纸
京东
二代
予以
玲
公式
跌
方针
钠
é
不去
啊啊
糖尿病
计划生育
衷
口语
坐标
密封
客户端
冷静
这才
各有
光明
满满
旦
走过
没见
大哥
基督教
济南
╭
中山
接待
附件
不变
过得
na
县委
日记
睡着
高温
质保
资深
财经
产量
开学
暗恋
ル
师傅
任意
树立
匹
售
繁殖
欢乐
ri
星座
姚
仔
医学院
ell
纺织
$
op
中学生
玩意
万吨
摆脱
三天
功夫
泳
净化
国家队
罐
允
高压
ut
安徽省
享有
金额
外表
厂家
附属
差点
仪式
1949
半天
疗
Le
出租车
53
一下子
XX
绑
讯
签订
情人
穷人
绩效
门槛
缝
贪
液体
暗示
几千
半夜
举例
肖
有助
聚集
小事
GA
预期
蕾
仕
App
标准化
下车
三四
╮
刑事
康复
缸
五百
国籍
妆
惊喜
88
To
爵
资助
赖
指令
形势
贵族
事后
反思
酬
处罚
呵
持有
积分
困惑
熙
有种
遥
清理
82
ul
ss
交互
当选
跃
法制
座位
用法
歪
使命
事务
志愿
辽
理智
人力
延长
渠
柯
不像
狮
鹰
常识
帧
ス
签约
债
电机
代谢
宪
筹
写出
引入
植
悟
MA
多元
立马
奖学
洛阳
走路
ton
还原
挑选
近期
钢铁
衡
学长
诗词
书中
延续
指示
重建
SE
布置
在职
摩托车
水准
骨干
128
终身
竞技
巷
旗舰
浇
管道
科幻
高新技术
特效
粤语
开头
谈谈
震撼
披
灌
希腊
遮
师生
采集
包容
朵
生死
入学
缴
模具
坚强
斯特
调研
禄
↓
减轻
con
赐
◎
委会
Co
出自
跟踪
叹
有名
澳洲
捧
978750
葬
靠近
漆
IS
当做
场地
绪
教会
耶
3.4
邮
桌子
察
瑞士
撑
长久
平静
骗子
我用
驾
傲
长安
不明
夕
郊
二维
ard
伴随
字体
开发区
0.1
猪肉
密切
栋
孔子
做成
170
′
巫
列车
影像
不动
节省
科技进步
陷
许可证
瑟
る
徽
懵
分支
内在
上门
委屈
双手
两句
缩
喻
气象
州市
悉
照明
约束
酒吧
分之一
弘
土豆
内蒙古
蓄
默认
坤
一会儿
1200
盯
试卷
一夜
之内
ty
试题
激发
实质
清华大学
可行
匹配
不锈钢
日起
娶
验
ˋ
寿命
名牌
学霸
憋
山区
勺
国土
裁
华人
占领
登录
彦
计量
仇
孕妇
炭
一瞬间
脑袋
琪
涵
老家
射击
制成
道具
大门
年级
锤
砂
弗
纱
细腻
畏
CC
个别
手工
讲师
74
魅族
扭
户外
激
封面
と
登陆
光学
140
封闭
扩张
................
坚决
活力
翅
体力
僧
物理学
4.5
家境
拼命
71
雀
装逼
裙
黑人
毫不
娃
节约
敲
奏
称之
彻
後
雅思
1958
か
水库
辣椒
便于
保守
绍
中原
6.2
說
研究员
路由
第十五
に
行李
穆
○
啤酒
占据
百万
这份
家属
二手
农田
乐观
DDR
酯
春天
副会
不爽
潜在
锡
嘲讽
阴阳
世界杯
詹姆斯
绘
抽烟
昭
精灵
走上
共产党
ity
奇迹
亏
信誉
火箭
法定
沾
ノ
几十年
很长
熟练
平板
〉
鼻子
说出
变态
命题
传送
vi
癌症
钉
ab
任职
专栏
决赛
摇
诉讼
忌
AS
You
花生
排列
几率
崖
犹豫
涵盖
利亚
三维
懒得
子宫
ant
牢
提名
用药
开口
总经理
吻
冈
low
纪录片
家中
ong
ee
进而
样本
舱
评审
吏
て
衡量
LOL
复印
烫
ice
监察
紧密
过多
散热
变更
充足
规章
冬季
抛弃
名为
水稻
68
写字
一笔
同类
步行
摇滚
指责
紧急
强奸
抗日
局长
贼
以往
充实
ex
气息
端口
←
遵循
环境保护
同情
87
买卖
イ
豹
Mac
left
圣诞
蒜
崛
大都
携带
机身
贫
ES
上传
备注
菜单
贷
流浪
简洁
转载
菊
杰出
两条
Java
邻居
约翰
王子
ti
中共党
考验
髓
钙
第一百
太过
弦
现为
号线
良心
ㄧ
ER
地步
二战
战役
情报
臭
大事
搅拌
温州
三级
da
到位
穿衣
俄
少量
验收
钦
不及
硬化
堵
封建
九章
有限责任
非要
盗版
ear
高科技
精选
附加
先锋
演变
劫
民营
市民
好事
CH
屁股
昆明
手续
压抑
必备
恋人
笨
can
讲话
km
外科
乏
代表大会
醇
塌
出血
坐落
熬夜
崇拜
出席
前途
公正
捞
礼貌
匠
answer
治愈
不开
鲁迅
尝
选项
央视
桌面
ru
ide
众人
婚纱
草原
夷
婉
誉为
失眠
交叉
78
高档
电视机
潜力
王朝
永久
全家
5.3
省内
浓度
批发
嫩
向前
援
供电
串
男孩子
目光
粥
制品
old
94
后台
借助
not
日军
拒
Ma
赔
风云
background
ian
揭
战胜
太子
〕
列表
高达
中级
耍
期限
巅峰
路径
从小到
袖
涩
卧槽
黑白
Ch
分散
温泉
〔
特有
股权
军人
67
光驱
溶液
一股
胺
主干
日益
强势
回收
集合
桐
欺骗
ill
电器
61
高潮
哇
怨
难得
瑶
更名
租赁
高中生
卧
冷却
年初
丧
默
发票
反抗
部落
亲密
垂
ve
提起
内外
生物学
守护
审判
向往
̀
产品质量
消毒
突发
入口
起步
导向
引擎
do
参照
AT
弊
十岁
经济林
哟
停留
团购
ix
对称
喵
转向
硕
ist
太大
处处
监
护士
革
询问
修正
肚
研讨
地产
发电
友情
BA
AN
咪
珍贵
古人
发酵
工科
克斯
鲜明
畔
第十六
大奖
奋
秉承
高低
失恋
订单
爱心
TM
zh
书写
耕
住宿
三分
大声
驱
top
参观
建国
生活费
姬
net
传染
户口
Linux
聚会
楼下
钓鱼
综艺
天堂
做人
立足
涉
一圈
la
嫌疑
污
联合国
姑
ni
侵犯
春节
一体化
--------
前言
不通
HR
占有
邑
一小
真理
奉献
钻石
翠
坞
无知
农产品
ha
讽刺
两大
修建
观赏
正当
荷
瓷
产物
蜀
防水
屁
惟
明代
配音
绳
见解
人心
重庆市
五月
任教
入侵
太平
鹤
演绎
钩
自来水
名义
数值
瓣
心思
周年
厨
弟子
数十
碱
足以
系数
地狱
被动
场面
老妈
bit
身心
盲目
黏
斌
备用
傅
陕西省
挨
力学
农作
ig
水中
备案
62
说好
殊
马克思主义
经纪
国企
长城
堤
棋
幻
水晶
解除
桥梁
代言
王国
果断
养老
oo
谷歌
好人
听力
云南省
巧克力
一手
稀
your
最强
慰
汽
6.1
奴
再生
扇
戳
海上
召唤
new
8.
现已
先说
清除
杉
爱人
索尼
见过
收拾
七年
巢
go
700
住院
结尾
事务所
畜
width
姐妹
逃避
感激
佑
此类
死刑
政权
lol
pe
尉
诶
胡萝卜
win
焊接
甘肃
下属
旋律
慈善
发型
推理
热点
美学
直属
外婆
RO
几点
椭圆
攀
虹
评选
深处
Hz
温和
之地
0.0
大胆
☆
输送
溶
余人
ure
水面
谜
棍
sa
配件
兰州
4.4
客房
丧失
十多
ラ
猜测
裸
自称
导弹
工会
同桌
学名
透露
勤奋
客运
辅
HD
开创
降水
纳米
盗
报考
誉
只想
买个
家用
堪
圆桌
ow
AD
CM
Con
动机
转基因
疗效
婴
底层
----------
高清
2017
底线
特种
Al
谭
相声
Se
业内
高峰
正版
斯坦
不时
金牌
趟
武术
--------------
铸
作物
坚
叶片
69
蜂
障
贫穷
商人
波动
部件
函
渗透
矿物
享
近几年
均衡
向上
八卦
假期
う
公关
刃
终止
一事
女士
脆弱
武装
零件
±
哄
佐
献
抬
ME
浸
晕
灶
卖家
这条
way
病情
在校
见识
淘
尼玛
love
day
高血压
判
多大
分管
求助
新兴
氮
奥运
响应
0000
主场
.09
储
338
南昌
笼
ˊ
兔
沿海
AP
拥抱
勉
美味
灯光
Web
储存
UI
国防
公告
大牛
话语
畅销
真人
何必
素材
争论
ud
宽带
七八
船舶
醋
作词
蕴
复读
毁灭
进士
摩擦
AC
媒
电站
容积
广州市
贩
太太
极度
瑞典
一期
编码
泡沫
直线
媳妇
惩罚
警方
几何
He
排队
中考
产权
光线
付款
bi
出生地
看不起
隔离
芯
text
家伙
外汇
顶尖
累计
决心
狮子
兼容
业主
网游
ary
迅
7.2
裤子
繁荣
总局
夫人
机遇
ji
童话
第十七
额外
宪法
筛选
葛
水质
震惊
报刊
转让
ms
分成
兼任
贯
su
应有
拿来
ト
xx
前段
排斥
煤炭
倡导
全民
.07
厌恶
学生会
详情
月亮
户型
太高
感慨
劣
海关
心想
讶
进展
暧昧
早点
疾
诱惑
十几年
闪光
纠正
0.2
狐
精美
司令
吟
好坏
鑫
老实
出售
娇
tr
首席
求职
杠
领袖
人身
抖
排水
大队
纽
不适
主板
阶级
副局
节日
应届
梨
点赞
世上
领导人
10000
忍受
1956
扎实
死去
新增
复旦
直观
抽象
侍
面部
人品
-----
合肥
And
這
换个
邮政
冰箱
窍
SS
唐代
细致
原子
菩萨
皇家
发放
Be
感恩
概括
咏
320
不难
脑洞
ner
被迫
带头
炖
肤
从中
两点
姿态
浙
6000
改名
雁
笛
加载
康熙
av
口气
陀
雍
月经
资本主义
悠
尽快
叙述
有益
观测
静脉
eng
89
恶魔
沙发
语气
保卫
到来
仆
鉴别
大堆
后代
嫉妒
小儿
人去
启发
ん
违
侃
氨基
个月
Unit
For
橙
深厚
论证
平行
第十八
通风
一双
曹操
每一
雄厚
航天
崩
东南亚
5.5
屏蔽
电影院
∠
全力
打败
科比
淀粉
核桃
江西省
陋
萍
放假
小于
一中
ಥ
热量
ance
信念
揉
屿
有害
四十
作弊
115
秩序
优美
存款
仰
角落
ay
匪
某某
熬
二十年
保安
油画
矫情
熔
右手
乾隆
リ
個
5.0
剧场
棕
柴
盼
di
脊
6.3
PA
协作
想过
桩
内衣
票房
Win
码头
建材
长发
山西省
预警
开业
疲劳
0.3
邮箱
灰色
学业
可达
-------------
补贴
征收
慎
眼皮
后卫
第二百
基督
闷
阿拉伯
经销
敦
媚
lu
滨
通话
一丝
钥匙
舍不得
多功能
成型
太平洋
ID
诸如
变动
脖子
名词
捏
模板
搏
十万
路边
洗脑
DS
ao
执着
1976
美观
运算
悔
饮水
矩
2.6
付费
果实
打死
不来
僵尸
垄断
尸体
pi
疹
泊
法语
大地
阴谋
疮
打架
人能
成交
引领
热血
防火
离职
按键
支出
校学生
干脆
反射
用人
隐私
精密
糕
回顾
利率
论述
利息
线性
は
透过
枫
发热
oc
伞
不堪
抗战
插入
孕
笋
乘客
千年
坦
头脑
既有
文革
奎
忠诚
博览
光盘
珍珠
土耳其
百分
小伙
.08
手表
七十
辽宁省
活泼
相爱
六个
bo
bb
总线
言之
EC
真空
此事
一行
编译
租房
出名
皇后
螺
學
谈判
市政
OS
握
深夜
der
结算
超出
蜡
太空
沪
星星
永恒
大夫
978780
言语
深层
进取
自然科学
问答
0.8
过渡
旋
企业家
量子
八年
同龄
US
南海
风雨
中国科学院
扒
出差
箭
虐
太原
黎
台北
变量
奠
做个
------------
评分
味精
热带
小麦
签证
宝马
大腿
未能
饲料
自愿
联合会
福州
长篇
iPad
域名
過
罚
牧
宝贵
三人
总裁
扬州
武侠
征服
权益
人为
1950
忽悠
炼
出处
变换
港口
思念
≤
广阔
à
打个
介质
新颖
真题
发掘
枚
精度
名片
好不
番茄
地板
褐
LE
储备
特长
志愿者
执业
调料
婆婆
丙
臀
梗
试用
Ro
好用
漏洞
we
聊聊
蜂蜜
电台
7.1
CS
马路
儒
提倡
不信
饲养
北美
渲染
数控
105
毗
线条
间接
一日
蝴蝶
内向
涅
野生
受益
隧道
妇科
字母
得分
一书
亲身经
男神
影子
衍生
旭
河流
行驶
亨
无可
收缩
AM
麻醉
风水
风光
两家
外贸
纠纷
用力
定时
捉
锐
债务
谨慎
振动
卫视
锤子
剂量
产地
头部
碟
FC
古城
司马
清醒
art
NO
疆
黑龙江
估
MI
即时
mon
阻
天文
织
撤销
精通
分工
章节
很想
进修
头上
六十
新华
前锋
龟
陆续
历代
参赛
炫耀
同性
进出口
制片
雕塑
PE
1970
要死
募
龙头
Mo
常委
屈
不大
实实
受理
姓氏
短暂
茅
mi
gu
霾
漫
累积
偏向
ue
音效
蹭
籽
课本
北上
诱
漫长
奖金
酿
感悟
性感
9787
心酸
1600
á
天涯
VS
党支
CP
实务
范畴
球场
薯
法人
り
四季
天津市
食材
摊
清真
hi
制造业
探测
哉
天上
更高
无效
淑
缓慢
分会
っ
合伙
生平
年内
编曲
一分
字符
调控
不成
蠢
栓
损坏
液压
假装
平民
剩余
综
联保
自拍
客厅
栈
ds
制冷
湛
占用
sc
卒
狗狗
叠
RS
老虎
肢
香水
面粉
马来西亚
China
机电
边界
罚款
第十九
au
帆
地形
体检
胀
屎
尚书
全年
迟
恭
才华
监狱
灵感
1960
艰苦
up
澄
拓
殷
杏
样式
國
ap
旅客
恶性
------
201
用地
左手
刑法
伦理
GHz
碾
术语
移植
半岛
注入
削
推行
膝
安心
鉴于
初始
ま
两边
脑残
杀手
ob
阴道
裁判
许可
开门
讲座
900
螺旋
书面
烹饪
时空
美人
教科
女王
生殖
侵略
抚
匿
橡胶
趣味
邪恶
用车
foot
天猫
终究
招呼
茎
瑜伽
帽子
芒
绒
涌
斥
行程
分裂
风情
1945
社会学
ea
相差
TO
何时
不利
CA
海报
巩固
滋
民俗
几位
控股
谦
出手
名家
ア
跨越
DNA
1.7
绩
本能
代表作
6.0
染色
总监
放置
od
时机
报复
踏
基友
遗产
器官
來
able
书名
侮辱
控制器
繁华
仲裁
勋
两岸
犹太
薇
氢
中期
来得
落地
半小
灾难
头像
RE
相连
商贸
街头
gay
这首
show
竖
受众
陆军
惊人
EN
失业
人际
外星
感叹
政协
眠
TV
回想
节点
十九
救援
顶端
饮用
歌唱
首选
ag
中毒
篮
ick
描绘
白了
Mar
尹
PCI
是非
君子
屯
Cr
旱
物资
押
星球
5.4
肃
双重
这段
伤口
四五
OK
伴侣
一杯
1975
选购
取向
.01
难免
警告
关怀
无穷
ron
初学
危
AR
华夏
行走
枯
露出
早晨
葡萄酒
MV
昆虫
看得
颖
职称
沉淀
赠
罕
香味
this
自尊
AV
十月
绑架
难看
ou
霉
ら
扶持
得起
一发
崎
率先
特质
0.6
si
蟹
微生物
贝尔
百分之
掀
除此
破解
不觉
冻
LA
侧面
禹
四周
诡
iphone
贸
彼
My
励志
腺
驰
交际
拍卖
桃花
下雨
゚
光滑
魔术
小吃
仿真
all
1964
无敌
德语
宽容
艇
城区
101
妥协
對
不妨
NA
劈
GPS
き
无视
ec
侵权
磷
比喻
bug
相继
流域
翘
but
保温
雕刻
变革
圣经
聚合
噪音
调试
找出
二者
he
土豪
面板
而出
流水
一组
本事
命中
web
续航
大批
遇上
斋
les
火锅
转身
帐
离子
去除
适配
舔
庸
努
二十多
七月
进度
480
魄
108
调理
学好
1962
万物
»
并发
提要
招标
并不
1977
点儿
衫
用水
尧
轨迹
更何
调味
着急
长春
柔软
一幅
修炼
自家
愚蠢
选拔
第二十
窟
MO
酒精
修理
口号
口服
所得
祠
鲍
跟随
前女
额定
有意
持久
晋升
我来
初三
屡
添
增值
一二
中外
嘴里
杖
排放
衔
6.5
考古
ク
阳台
身后
AL
掩
入住
联网
出行
兮
玩玩
肋
开朗
1963
支援
修订
恰当
庚
感应
葡萄牙
不顾
闯
禽
炫
97871
SA
感触
ho
硅
溶解
反击
解说
沙漠
供给
泻
竣
岩石
忆
air
碰撞
这事
虑
帘
二十四
卜
促销
必定
这座
标记
义务教育
矿产
逼格
睡不
侨
卤
疫
play
安置
弧
颠
金刚
填写
上涨
治安
跳舞
三月
市面
丝毫
ome
难忘
年薪
自习
辱
处置
平淡
珠宝
痕迹
华东
粗糙
邵
ph
一处
ler
切实
失落
做些
-------
主任医
背光
く
offer
冀
波兰
ㄨ
朋
闽
Do
任命
西瓜
hu
Cl
带上
腕
抵押
ā
新城
ium
告别
一头
尊严
激活
心动
五大
口袋
藻
喘
哼
打扰
1965
建模
终极
前列腺
空白
凝聚
185
□
出租
我爱
实业
有次
po
1800
后勤
IE
誓
考证
SI
介入
社科
会计师
简化
见证
XP
甘心
统筹
发给
CE
自豪
2500
脑海
baike
蓉
生产力
诏
加密
滞
大片
雌
剧中
热心
不合理
推销
商量
退役
百合
防晒
寂
大桥
传达
太小
三千
总理
枣
笑容
出入
大海
气势
仓库
室外
雷达
诺基亚
孤单
sch
留言
背叛
抵抗
市场营销
阵容
力求
试点
千里
分明
log
ka
耻
晴
━
qu
无锡
甄
光荣
1955
燃料
管理局
共鸣
妹纸
扁
175
左边
炎症
省委
激素
An
大幅
博弈
出品
愚
tri
Di
宠
金庸
扬声
抬头
が
堪称
奢
废话
锦标
get
客场
.06
0.4
DA
脱发
扩
网址
125
伸
中医药
救助
监理
电子书
聪
ui
蛙
后人
line
谣
防范
嘿嘿
科学研究
全套
故乡
省市
联络
窑
菲律宾
嫂
右边
健全
书店
乾
ts
越大
乞
坏人
标识
村里
恰恰
扛
医科大学
111
樱
装甲
拱
ey
折叠
卦
社会保障
熏
麟
Microsoft
运转
哎呀
ver
奶粉
火山
单机
贱
那句
晶体
空军
一节
道教
修行
看不出
长约
遥控
造就
两只
启示
查找
自制
膨胀
恰好
两张
编著
8.2
想来
铅
主打
和尚
未成年
看病
xi
复活
历经
纳入
致命
回合
牛仔
决议
应付
诊疗
◇
专职
富裕
display
湿度
液晶
弯曲
底下
1959
消极
木材
凝
小镇
演艺
协同
光电
际关系
It
全班
平原
最有
托福
纬
优异
动脉
畸形
阿根廷
冶金
一说
缩小
惧
外来
应试
高山
合物
浴
EX
Ar
精细
打字
墨西哥
文人
诠释
最深
威力
厕
楼梯
卓
int
鳍
中年
逝世
扭曲
说不出
候选
一个多
伊斯兰教
栗
1957
吉林省
珊
感人
白云
风味
ga
家园
甜蜜
.03
捐
序列
资格证
蕊
器材
0.7
1972
玩儿
阻碍
Apple
256
文物保护
剧院
敷
方形
国语
.04
万能
教导
多彩
align
中华民族
厢
矫正
连载
热闹
可信
大楼
萝卜
胶版
谈话
亲切
感性
发售
络
行使
を
以人为
tic
7.3
人来
饱
加重
筑
合金
景色
red
350
ies
邱
谨
行情
Si
帅哥
原型
写下
拦
1952
焦点
8.1
投降
孩
骚
嗨
校友
法官
下课
签名
表彰
附上
不理
ci
url
子弹
离不开
font
汀
爪
病理
音响
中途
保湿
皱
1974
预告
沛
发光
莆田
网球
稳产
荐
google
贯穿
往事
有权
区内
▪
吞
期末
浑身
山地
芝麻
OL
展会
成品
石家庄
if
121
残忍
农场
孙子
DI
TS
排出
亚马逊
间隔
老鼠
总的来
库存
不远
步步
份额
宁夏
焕
膝盖
楠
蚊
单单
550
ub
炒作
pp
抢救
破产
评判
KG
同理
花卉
襄
land
离家
低下
带走
癖
葵
完后
1.0
寡
SO
斧
哈利
高尚
挥
名誉
五六
调用
阿里巴巴
起义
4.8
蚕
1973
力气
叨
趋
let
1968
≥
没钱
ny
嗣
联邦
斯基
协商
偿
山上
紧紧
十个
恶劣
数百
一瓶
锂电
政法
胸部
庵
腐
协会会
IA
弓
传销
750
搅
柠檬
前方
终点
联系方
拘
粤
群里
切除
tion
不当
夫妇
亏损
军团
递
吼
预约
亲爱
家教
一波
日报
十余
愉悦
桂林
1961
ッ
大国
暨
短短
噢
DC
发了
焊
ost
du
纺
冤
黑龙江省
搜集
windows
枕
八月
650
380
世俗
长远
老是
线上
have
插件
一站
999
ED
酮
卧室
谎
国立
燃气
梵
愧
早年
凭证
屠
胡椒
这款
禁忌
8000
坎
谈论
观音
妥
奸
MC
同名
唐朝
少儿
yl
ca
慈
地带
III
颁奖
翰
1966
欧盟
6.4
艘
で
was
元件
美剧
悍
字幕
星际
风暴
阱
感知
妊娠
路口
圣母
一秒
很多很多
邹
稻
九十
昔
合唱
Part
窗户
痴
谐
备份
一碗
寇
有空
停下
青海
好莱
CO
不合
不服
精神病
召
除去
耽误
双眼
沒
OR
有无
涂料
自助
而后
尼亚
家务
发烧
录像
操场
海水
环球
人有
颠覆
微波
密集
尽力
电阻
168
捐赠
卡尔
相见
四月
字数
民事
John
商业银行
女权
六月
担当
低温
ei
生化
让人
钞
可否
二十一
教育局
第二十一
火焰
cl
儒家
工学
维权
习俗
信赖
三点
庆祝
履历
妞
烯
不屑
絮
ding
荫
琼
华北
atch
变速
ool
读过
点点
java
tor
风扇
New
文书
改正
切割
林地
自古
日内
拆迁
畅
中东
无线电
男士
MM
压迫
哺乳
挠
诈骗
图标
可行性
譬如
媒介
供水
实物
3.6
不负
浓厚
SATA
揽
催化
书法家
所用
will
酥
一切都
头痛
深化
仪表
も
九月
sk
脾
詹
标注
另有
师兄
れ
麻将
悄悄
__
车间
纠错
违背
廉价
娃娃
纤
姨妈
出土
三百
矢
中西
回族
磊
こ
羽毛球
大体
电缆
残疾人
执政
112
ì
SH
不看
解放军
专业课
4.7
流氓
shi
GDP
凳
渔业
军训
炒股
农历
糊
细分
归纳
机灵
新西兰
扩散
篇文
诵
天真
SC
方程
fa
商会
歌舞
工业园
武帝
楼梦
TI
1954
滋味
CEO
因果
.05
措
玛丽
文笔
根源
重组
无形
BO
判定
ns
性化
1953
攒
ON
复发
OD
粒子
1969
宝强
EL
更改
结晶
归属
债券
Д
棱
老头
right
美军
城堡
102
地名
新品
农药
第二十二
敢于
装有
束缚
178
评委
永不
size
广播电视
栖息
受过
CI
争夺
全校
心得
随手
伊斯兰
剔
埃及
寒假
信托
盒子
普查
闻名
西亚
挫折
影院
物价
会展
水电
磅
门诊
著作权
赛车
怪兽
模样
amp
涡
被子
不带
另一方
苯
静静
限定
境外
OP
此刻
炸弹
佛山
横向
羊肉
开阔
诸位
一号
莲花
狠
容纳
Lo
徐州
cc
tu
廖
奥地利
啃
贡
不小
2.8
污水
前沿
ins
怎
盲
We
试着
观光
吉祥
禾
全场
终结
机箱
br
单反
ber
修养
明清
OT
到期
户通
烘
脚步
报价
审定
dy
三线
先天
蓬
甫
梦幻
闺
黛
之战
史上
渴
腐蚀
外文
女票
国道
135
润滑
脚本
九年
揍
190
1937
棉花
165
推崇
班子
like
压制
rt
VGA
家电
han
慌
MT
云狗
话剧
Car
芙
无情
会儿
遍布
如图
红军
高分
超人
尊敬
纵横
あ
彩票
香蕉
借款
满分
一贯
ran
bu
拥
诺贝尔
操纵
听课
中央电视台
Pa
卡片
两面
TA
蜘蛛
动画片
中日
梦里
德育
挽
104
紫外
纯属
会同
蒸汽
东风
恐龙
评定
排序
名声
不安
拙
1948
民生
梅花
蒲
宝石
广电
尾巴
礼品
7.5
mer
蘑菇
散发
导入
平平
踏实
搭讪
反过来
自有
亮度
破碎
电容
8.00
ever
短篇
最优
必需
定居
干涉
百货
起草
人工智
上床
毙
大方
整整
海底
接入
8.3
事迹
因子
总产
银河
舅
育人
IM
未经
美白
构图
奴隶
哑
富人
迄今
浊
out
之心
晚会
开源
乳腺
民谣
名师
尺度
Love
1080
Th
闸
厦
亲近
睿
全文
吸毒
支配
与此
┻
不解
复兴
签署
标本
栖
复仇
port
马云
PI
公社
整机
无辜
列出
不论是
ser
守望
tro
001
第二十三
煤矿
触发
契
东亚
情境
纪录
俞
神仙
SP
缠
包围
格林
咳嗽
学了
Man
整齐
虚荣
.02
呐
捂
ach
条约
立方
多一点
袍
轻微
ction
5.
口中
袭击
2.7
双向
包裹
巨人
晃
囧
乌克兰
ite
TF
钧
编委
850
多万
承载
索引
越高
善意
哨
绝缘
内设
几家
蚀
摄入
古今
Ha
变压器
跳跃
SL
苔
EA
四处
俺
小行星
照样
侧重
摧毁
毒品
186
导游
实地
测评
ster
一個
四级
舍得
走势
操控
内分泌
隋
俄国
克制
吸烟
绣
表决
高贵
视力
史学
106
沉迷
270
机智
HDMI
测绘
企事
参考书
伽
海岸
判决
ind
色素
步入
珠海
海贼
打着
神马
愣
戏曲
年产
霉素
迎接
步兵
自定义
一百二十
礼拜
创伤
而来
大米
So
赶上
墩
览
Mbps
体型
刹
吃药
凹
来回
参见
时时
滥
时装
这篇
敬业
屑
轮胎
双核
神圣
苦难
背面
未婚
起诉
威廉
预定
机票
出栏
SKF
焚
光纤
紫色
不禁
read
lin
3.0
指向
打出
嗜
独家
郁闷
疲
儿女
EI
科学院
播种
售价
time
抗日战争
雯
真爱
市中心
固体
问过
ˇ
剪辑
Ca
领取
■
演化
煞
启蒙
叛
八十
分区
成语
棘
坚信
姥姥
Chapter
传动
劳务
上天
惯
刷新
黄瓜
着重
补助
ence
西湖
other
know
学说
老爷
ical
RA
.......
199
烈士
履
ata
琅
讳
检索
缩短
指纹
小哥
读物
沸
月饼
句话
Go
鳞
青睐
MS
1946
淋
俱
png
远方
叙事
小弟
赞助
证件
一朵
比利时
咳
马克思
庐
祖先
杰克
甘肃省
Ex
病因
捐款
化石
坚实
沉重
万年
上层
武功
1971
低头
接地
绍兴
主营
Na
瀑布
簿
日文
社保
汇率
正经
坂
出资
挽回
嘱
ET
微微
dd
赞美
气味
误差
亦可
制药
宫颈
光泽
库里
1938
火星
TE
摄
机动车
zz
草地
what
有线电视
氨酸
门票
外公
多点
更能
信访
玩过
揭示
湿地
以色列
菊花
岚
跳槽
胶囊
突击
自治
存放
cy
馅
转入
lan
刘备
第二十四
村务
肘
推测
ke
泣
黑客
房租
侦探
丹麦
过关
戚
铸造
两部
交汇
典礼
泉州
配送
绿茶
古诗
聘请
上车
ren
装配
搓
che
制约
共产主义
En
梭
シ
贴近
厌
相传
XXX
莫斯科
Flash
静态
强力
魁
居多
比方
310
政务
≦
锅炉
512
覆
矩阵
海内
DE
Vi
多半
米兰
丫
中断
010
dr
≧
循
没多
旅行社
脱落
拿下
kindle
res
债权
神器
肥胖
开工
没能
VI
峡
燥
新娘
京剧
中专
服从
word
订阅
希拉
塞尔
重心
宵
骚扰
三是
天主教
检察
马克
暑
心跳
后天
123
三位
锈
í
咖
弱势
さ
7.0
Ac
α
交友
腐败
内科
长途
莹
集贸
侵
白领
转速
溃
听歌
声誉
刹车
企图
冷水
国家自然科学基金
罗斯
om
768
易于
叙
历年
油脂
1920
开花
明月
使人
管理学
料理
潇洒
专心
诚实
朝阳
乖
年少
描
一举
重力
ina
美洲
捕捉
拐
640
来电
派出所
大同
118
ana
ley
火灾
藉
想念
恕
舜
着手
词典
̅
跨国
技艺
六级
韩剧
干活
压根
∶
HA
彰
9001
娟
务实
华南
遗忘
关卡
法治
一想
谴
牡丹
阮
有毒
灿
鱼类
汝
渝
230
保管
不失
330
施行
同等
レ
卖出
馒头
9.2
延迟
xxx
改良
携手
史料
轰炸
慎重
寅
放开
ae
比重
Facebook
开辟
昆
金山
TX
艾滋病
з
倾斜
动人
188
用作
指甲
收视
今晚
例外
不乏
苦苦
围观
益智
轮回
原作
ase
焉
生效
坟
ling
胞
刘海
為
包子
用狗
栗子
7.4
藩
光绪
果地
剿
早晚
颈椎
帝王
上方
不曾
流体
华语
人权
ド
婷
五千
ory
圈里
日出
探险
9.1
餐馆
BC
103
vo
套装
act
至上
教育厅
转折
1951
酚
dis
202
赠送
白酒
近视
面条
往前
手下
天线
古文
贴心
浸泡
人知
208
平庸
泼
随之
第二十五
欢喜
107
货源
骄
虚假
绵
秉
何处
风俗
枯燥
藕
调度
列举
掐
SM
own
橄榄
怜
宣传部
遣
散步
格斗
针灸
交代
三亚
灼
PR
厂房
全长
花椒
ous
筹备
拖延
李白
十足
转动
已知
114
空虚
University
多层
诸葛亮
西游记
ake
两百
鉴赏
邓小平
区划
放进
OC
不着
招收
ning
锯
嘘
高票
新区
NT
死者
辨
剥
开幕
520
配乐
高频
五星
沁
1947
海域
十字
交通运输
ack
霖
煲
民办
烧烤
天然气
み
蝙蝠
灾害
跟风
205
彝族
独有
7.8
三体
负债
高新
夜间
滕
澡
list
驴
访谈
胳膊
210
狗肉
筷子
惯用
dB
争吵
伍
nm
肉体
陈列
116
抑
对立
澜
欧元
ock
填充
通路
水上
加深
姥
人造
之意
明亮
制动
340
其后
唯有
放射
货运
VR
简约
而知
會
公积
206
军区
背着
す
居委
彩虹
嵌入式
不许
有事
朗普
无助
助学
门外
地主
富含
町
ep
早日
客源
氯
众生
万余
粪
苛
讽
伙
嘤
迷信
初二
无毛
歌剧
内核
胃肠
婚前
交界
津贴
意境
️
ak
奇特
沉积
微量
网购
公安局
蒋介
坠
阎
FM
GP
锥
5.7
食谱
常州
自律
BOSS
维尔
洋葱
峻
暂停
民用
文凭
涕
月光
极高
流失
荧光
原生
公立
酸奶
行榜
逃离
读卡
152
战国
AMD
洪水
规矩
iv
细心
溜
ff
骨骼
之路
迷人
报表
1940
领土
二月
极少
Ta
超高
BS
学问
核算
收回
各路
SD
小人
呦
树木
exe
现行
名额
语言学
凸
鲜花
仓储
调解
粉红
富士
那会
王者
小火
环绕
Or
夺冠
硬度
ise
圆柱
ish
一向
ki
太极
华侨
歧
厨师
轧
水资源
可视
中性
阻力
礁
分级
冷淡
漂
堕落
噪声
学医
国庆
System
辨别
初次
整容
机动
武林
当场
白菜
和弦
契约
蚁
门户
校内
合一
庶
带回
耶稣
钢筋
挪威
热烈
安定
锁定
一幕
奥斯卡
投放
家门
腊
阴暗
几万
Ne
同胞
第二十六
置于
外人
窖
围棋
max
骨头
治病
遵
多重
同济
父子
疤痕
带宽
本草
衰老
鄂
迁移
hr
成份
近日
瑜
祭祀
绊
澳
潜水
eb
孤立
佣金
骏
财神
等等等
世博
缘分
form
大王
柏林
乳房
oh
ave
情趣
乔治
回避
反弹
阅览
真假
NC
呕吐
晾
肢体
ara
花样
何种
受损
甲醛
纠缠
LO
颤
无处
万里
奔驰
一笑
row
10.1
指引
ST
换句话
白银
开户
纯洁
引流
有余
tt
齿轮
秋季
诸侯
山顶
秃
展望
Ka
tra
吸血
加之
人多
军官
113
蛤
国际贸易
检修
刻画
浮躁
一无所
秋天
锌
As
嘿
恩爱
各界
三十年
红旗
广义
狄
静电
不死
教养
中型
洒
公分
HP
捣
mp
减速
拉开
成都市
垢
应聘
妍
一词
淋巴
bottom
挚
一届
冢
色泽
1944
恤
开会
预备
文言
火爆
残留
歌声
睁
省会
无用
嚼
全局
开除
庄村
1936
坐下
拾
android
致富
何以
金色
钝
斐
烟台
GO
变频
喉
真有
联通
淋漓
水产
high
屋子
RJ
set
照相
反之
无不
航班
轼
之作
股价
赌博
va
好点
RC
火力
红外
流派
隶
璋
檐
可乐
第二十七
伪装
中国人民解放军
维奇
直辖
工业化
朔
追踪
134
tin
半导体
筛
狐狸
拼搏
解脱
前卫
纪检
附带
時
-----------
钛
豫
春季
扮
小提琴
驳
时有
梳
素描
沼气
随身
450
海鲜
迎合
管制
界限
CL
城里
史记
哪有
掠
脆
追逐
骑兵
薪资
音色
鞭
1939
月初
中国人民大学
常有
内有
DM
CT
171
code
ロ
冷冻
肝脏
汽油
每人
微观
平和
在生活
帮到
创造性
帐号
华尔街
就此
各省
吸附
↑
东海
二十五
向下
实名
替换
心血管
摹
多为
蚂蚁
同比
君主
1967
è
232
天王
Ad
4.6
万多
成像
糯米
镁
违规
唤
演示
睹
All
看清
解散
ung
1935
而定
票据
机床
gen
窦
窥
长短
养老保险
點
伊朗
9.9
兑
美帝
155
光辉
课外
乒乓球
炳
ジ
哪种
数目
妾
长达
发声
迟到
鹅
闪电
领悟
敛
拖拉机
美化
负荷
写成
AI
摆在
1942
饶
各方
习性
尔斯
杆菌
9000
五官
开办
IEEE
与众
10.2
大豆
view
热衷
iz
失踪
1941
盔
敏捷
inline
木有
美妙
倩
泰山
颊
780
传授
常务委员
共和国
无机
槐
充分利用
昏
定向
胶原
铃声
有序
固然
考前
交谈
垮
DOTA
淡淡
充值
掰
做点
枢纽
可思
part
欧阳
琢磨
加州
凿
109
配角
鲸
十佳
脑补
瞧
田园
号召
小狗
ull
谊
浑
兜
勇于
心脏病
硫酸
非得
太低
辟
排版
苏格兰
区间
タ
缅甸
迎来
仄
Sa
专卖
村情
御史
之分
学过
梓
对接
私立
青山
薪水
法庭
四方
微型
抗拒
动词
仅限
183
280
マ
砖木
喜悦
督促
替补
往来
疚
子孙
没收
定点
洗涤
Lin
One
mac
不由
专属
打下
缓存
再现
翡翠
打折
嘎
死后
聂
掷
配料
car
辩护
预言
沉浸
贬
马丁
YY
喀
恒星
日系
彬
1900
草莓
UC
新年
教委
用手
一辈
步枪
离去
Wi
ica
亚军
222
215
意识形态
得罪
省部
前台
work
现货
撰
汇总
о
裴
收支
鸽
心痛
纯净
赣
监视
头疼
不论怎
匆匆
麻木
boss
1930
卡拉
疤
饺子
延安
文化教育
ris
а
上游
爵士
幕后
理所当
冲洗
声称
被告
台阶
讲真
眼看
笔画
不光
格尔
南非
核准
震动
寒冷
或少
js
down
抚养
开采
第二十八
AE
娅
ting
rs
name
冥
API
单片
样品
猿
踪
黄山
瞄准
门前
活下
昊
佬
沫
泌尿
沿革
百花
成名
中华民国
嚷
急救
解剖
艰辛
好歹
产后
琦
头顶
揣
可供
平稳
动员
组装
发扬
Bo
冶
117
构思
203
ess
改装
圆满
荆
剖析
汇集
开水
发电机
起飞
火烧
ah
机组
官方网
一帮
再者
一回
Dis
罪恶
保罗
郝
桓
use
晚年
勃
外国语
轿车
真真
铲
204
小偷
台上
四肢
眩
sign
LC
つ
户数
ku
投机
滑雪
̥
世家
发货
大理
舅舅
野外
org
International
检疫
SCI
曲折
做爱
搞好
鸡肉
误导
周一
懦
酪
透视
手游
独具
ten
MBA
排骨
心意
163
副校
CG
定量
下跌
ile
CR
沙滩
金银
Fi
日至
汇报
数字化
摸索
MD
蓝天
状元
缕
ger
睦
超大
分期
丢人
精子
共青团
transparent
杜鹃
兵器
妄
ls
176
诣
ier
通报
萼
手套
技术开发
垒
防腐
确切
祁
甲状腺
增添
伯特
竭
违约
杀菌
马尔
贵州省
Ra
156
洗手
戎
之星
分化
DP
二百
之道
无语
抠
叶子
郭敬
初一
猥琐
LI
淳
想像
Per
伸出
see
鞘
考完
八百
仅供
华中
养护
边境
TP
嘟
吃亏
粘贴
国画
serv
电动车
不值
棵
隐形
吹牛
light
僵
拉伸
外加
共计
心血
0.9
三层
叮
直升机
而然
3.9
特产
just
完备
瘫
ll
领官
鸟类
游乐
媛
不差
β
河道
秀丽
葫芦
音乐学院
扶贫
五行
花瓣
星空
真想
中南
徘徊
深情
169
学渣
119
签字
一到
深远
支柱
eg
疲惫
代数
Com
发觉
瞳
变焦
飙
光芒
大军
南山
ī
南极
ale
人脉
可不可
驯
不尽
打交
城县
太好
风气
富贵
吸取
剧烈
机能
国有资产
洼
直达
饱和
雷霆
喔
湿润
驼
开着
宁静
叛逆
樊
ord
陕
ire
绥
装扮
抉
260
key
绘图
粉碎
化解
存活
淡水
不孕
耸
注册资
矿山
221
脉冲
武士
加水
生子
件事
夕阳
衬衫
回味
145
犯错
之情
游览
两性
高跟
黄帝
得意
农家
放手
布尔
马刺
南瓜
均价
磕
之王
必将
第二十九
FF
或多
尽情
心智
理发
巴拉
乖乖
抗体
尔德
亲身
9.0
PPT
寓意
南阳
遗迹
捅
long
恰
胆固醇
中国画
ect
ft
众所周
落下
衍
720
掩盖
打印机
卸
华盛顿
派出
询
ino
PO
ko
树脂
野心
木耳
几本
122
NS
派遣
女装
贫血
1934
ight
译文
333
卵形
一模
301
龚
主讲
岔
缩写
一月
新东方
京都
pin
九龙
红酒
肽
难民
剥夺
咽
分局
俯
行星
腌
den
交付
ya
坚守
刻录
囚
殖民
卑
420
无脑
不忘
∩
低价
魅
贵阳
疑难
好心
武汉市
合资
蛾
颁布
外套
楷
星级
中文系
魔鬼
无耻
cd
外行
渍
胡子
氟
Sp
7000
蒸发
隙
名胜
单个
卵巢
枸杞
督
陇
援助
较长
破裂
笃
快餐
理学
高原
第三十
美感
回首
公子
gg
他妈
BE
克拉
轮廓
行列
功利
独到
万分
八大
也罢
调制
早起
首付
电工
铁道
chi
PP
韧
通宵
EM
组织部
药用
镖
147
KB
迭
影评
207
无尽
GSM
蔚
9.3
预报
杂交
开个
血压
小号
忍者
中共中央
440
优劣
东汉
腋
汇编
增产
橘
数千
BB
卡通
长寿
繁体
自知
阀门
托管
BL
CCTV
刻苦
灿烂
KTV
幢
对错
私下
容忍
爱尔兰
小腿
晖
pan
雏
听话
盛行
救灾
大笑
大圣
1933
雇
驻地
特约
赞成
寻常
CV
随地
莓
变异
一分钱
172
上台
其一
折扣
开封
中餐
ios
float
裹
209
后方
渐进
天子
等同
工地
日照
EE
缆
一来
悬挂
换来
洗脸
取名
彼得
这群
源头
成效
朽
精油
圭
沃尔
滋润
五金
衬
最能
榆
亲子
だ
眉毛
Air
IBM
一百多
〖
璧
防空
梳理
淹
妨碍
⁄
her
一百一十
文体
ROM
得多
自在
大幅度
Ti
洛杉矶
ator
扩建
更多
阿拉
纷
工程建设
隆重
缓冲
大盘
韩寒
饰品
直立
简易
月球
Su
风采
实证
El
ii
1943
香油
巴士
零部
一如
苟
宛
迦
3.7
tab
全能
撒娇
驱逐
稀有
CN
桔
活在
小康
篮板
Dr
水源
cal
泄露
诅
从容
粑
人民日报
AB
〗
宫廷
丽江
陆地
狠狠
搬运
家常
栽
超声
六七
最爱
突变
par
304
展出
讲课
之力
孙悟
垦
LP
off
太少
擒
评测
ash
财政部
滇
垣
tal
失效
新生儿
php
天花
Python
浓缩
两周
5.6
力争
排行
瞩
解题
king
借用
磷酸
ef
帮帮
don
ǎ
香气
火腿
丐
成功率
枕头
3.8
过大
运河
渗
直销
weixin
完结
189
二期
ja
太难
噩梦
不谈
焙
打包
头皮
127
侄
テ
一员
国学
想当
RT
藏书
议论
低保
填补
ov
唐山
基本功
讨好
ace
赎
谣言
晏
着力
春风
剃
探究
Mi
126
情歌
ug
应邀
too
抒情
中秋
镀
潜艇
二十八
麻辣
人情
清算
珊瑚
一世
户籍
以太网
打扫
梦见
整洁
先行
说卡
近似
fi
清明
椎
ala
单人
熊猫
彪
icon
560
注音
卸载
线程
181
ens
器械
HO
nd
pr
嘻嘻
1931
ax
别扭
点半
戊
Sha
星巴
模范
茸
高分子
怀着
天鹅
高高
兽医
见得
Ho
轰
管家
报酬
极品
窃
拂
断裂
锣
吃喝
武汉大学
信贷
kin
课文
祯
游击
指针
qui
终生
过高
面上
滴滴
厄
日制
218
顺手
窗外
谈过
耐磨
衔接
不掉
var
于土
一无二
借贷
直觉
腹泻
1024
形体
刁
射线
严厉
村落
川普
圆锥
體
手持
カ
火影
我怕
客家
FS
几分
173
基准
斯塔
1300
.50
面团
ology
釉
LL
話
下手
药理
稠
vs
本国
下巴
求教
烦躁
胚
海峡
谏
残疾
诈
良性
南通
发帖
大蒜
显微
天后
inter
同盟
数理
见于
钾
潜能
不予
138
下部
护照
Hu
8.4
每每
学分
篷
back
会上
菱
丰田
逃跑
黄昏
灭绝
发自
3500
肠胃
ง
友人
卯
德尔
诛
稽
作息
羞耻
复议
430
烷
尤为
book
作风
AA
田径
巴萨
rm
HS
郊区
江山
周六
ade
睫毛
眷
阳性
131
麦当劳
中枢
身处
亚太
sm
粉末
涉嫌
两块
格外
三代
片名
分枝
争霸
158
RI
不胜
315
选修
978730
ions
增生
同班
pre
暮
家装
自幼
逍遥
不妥
跳出
支气管
找回
保定
略有
祈
tm
籍贯
引力
开盘
文中
On
sn
二字
精装
倾听
拧
老化
Ph
芥
自发
听众
屋顶
弹簧
背诵
西路
全职
本性
骑车
以致
动摇
诉求
无从
过往
color
编排
芬兰
mu
八字
本校
披露
旅馆
who
螺丝
石灰
悲观
歼
相识
重重
渊源
手续费
4.0
顶多
uan
TC
ち
西游
ct
达标
岐
无名
af
悖
bl
泛滥
地去
978756
行人
党政
巴掌
第三十一
ING
Kg
水肿
忠实
生前
同居
ast
快门
完好
Bar
审议
晚餐
Mon
辩证
290
增高
大鱼
憧憬
历史学
不舍
图表
区委
哭泣
第二季
PM
外企
fe
Gu
痰
踏上
不买
过日
亩产
冲锋
百家
HTML
查出
悠悠
OW
艰
晚饭
百余
饲
370
一战
坨
庄园
ML
ual
题外
迈克
高职
219
二十三
所有权
砚
录用
什麼
崇尚
自治县
迷你
奇幻
往后
hy
结石
无忧
抢劫
小龙
红枣
续续
惭
薄膜
137
搁
ich
不懈
蜗
フ
yu
184
Time
昧
中路
978
az
124
深爱
ther
tan
衰落
蛊
诚意
传来
陈述
132
明知
乍
高能
桌上
天体
抗生
talk
职员
宰
拽
来往
砌
link
计较
ste
追究
始于
拆除
绮
一架
人称
窜
小品
体贴
靴
湖泊
体育场
察觉
當
女权主义
Ni
修饰
处方
佛法
万事
车位
人参
无能
Ba
蔽
呼吁
logo
昵
批量
妇产
杀伤
祛
CAD
工作日
黑板
钢笔
136
RM
数据分析
堆积
下水
躯
手写
增值税
伸手
化合
海棠
倾诉
嗓
正统
Home
国土资源
牵引
聚焦
DirectX
sion
卵用
背包
二十二
沦
硫
厥
海参
关门
心境
请假
民警
缪
门户网
978754
轻重
盗墓
---------
速率
还款
正月
class
特地
VA
195
溶剂
Chinese
筝
稀释
pl
备受
ù
肯德
血清
故宫
标的
耿
放出
送礼
草本
觅
python
ib
摆放
相思
首领
兀
穹
相等
药材
留意
蝉
手机号
南路
不忍
保研
埠
何在
OM
韩语
姊妹
weibo
只见
毛巾
催眠
靶
ail
DR
扁平
苞
FAG
铣
滚动
ope
声乐
风流
超强
________________
※
8.5
切入
振兴
钳
房型
抗议
波斯
一米
一律
祖父
下游
商用
芋
原版
133
议会
瞒
可耻
DD
膳食
1927
狂热
当着
芦
年版
非凡
癫痫
蹄
哮喘
碘
铬
这货
榨
切片
ern
侵害
sta
啼
亲友
读音
孽
因人
东路
主屏
少见
匈牙利
北极
意向
并购
一心
洗发
yo
动感
茫茫
数额
Vista
旷
灵敏
陡
临沂
第三十二
自拔
书上
乙肝
纪委
pic
海尔
人民代表大会
泄漏
时报
曝
ele
学堂
出头
黎明
Cor
袜子
营运
余年
战绩
block
重修
恋情
射手
红柿
肠道
牟
荆州
比亚
EP
RAM
What
登山
诫
车厢
瞬
美景
よ
食疗
皂
UN
磨损
反省
面貌
第一季
1932
茜
两千
旅途
油田
分歧
携
可不
ye
虐待
之歌
沸腾
棠
dia
伤感
屠杀
处分
工委
快点
陌
自此
Star
构筑
盛世
前列
奶油
脓
践
陈奕
已婚
Br
平滑
讲授
雄性
eo
FI
专柜
倒数
お
卫生部
不惜
滨海
躲避
幅度
饱满
真情
TT
多谢
万千
城墙
参展
甸
扳
不平
SU
Can
季度
儿科
177
樱花
反派
改建
毫无疑
掘
宦
部曲
极好
4.9
阵地
重生
祈祷
结实
IF
言情
五代
墟
电解
求学
水土
心爱
渺
立志
莺
擅自
辅料
蓬勃
买来
玻
负载
news
世代
预订
950
纪律
汉堡
ene
press
ó
追随
uck
头晕
壬
肾脏
1929
满族
地道
饮酒
151
量身
大面
冷门
2018
ial
性欲
退学
淮
杭
倒闭
西装
京城
129
235
有线
说句
二十七
惯性
赞誉
分销
video
甲方
吃饱
大卫
007
159
从头
局域网
盆地
酷睿
氧气
忙碌
Office
相貌
涎
爱看
兑换
出事
为首
木质
辙
废弃
石化
嵌
uch
斯顿
追溯
忧郁
照射
245
分组
政党
土木
必有
钓
下定
不能不
一集
使馆
ze
这片
炉石
迷失
储蓄
mb
写真
极拳
美术家
299
二楼
间隙
封装
孰
三十六
中科院
提议
game
层层
树林
制止
匮
Art
make
淡定
第三十三
一团
噪
明治
BD
1.9
SQL
竿
144
谥
蕨
乐于
胡同
DO
仙剑
颐
wifi
充斥
南京大学
投篮
说到
芙蓉
职权
适度
撇
豆浆
嘲
葡萄糖
PHP
亲手
考了
OO
议员
统计学
肆
海盗
脚踏
沐浴
缅
央
虚伪
升学
還
Lu
动车
460
支队
幼虫
碳酸
精益
图纸
唔
大阪
三峡
再也不
宽松
峪
柯南
二中
烟草
出错
卷子
wa
DL
沥
前置
色情
书包
轮子
奇异
倚
韭菜
十二月
141
blog
植入
西餐
寓
PK
选出
gi
Word
双语
职业技能
哥伦比亚
山坡
外资
磁场
算命
Vol
孙中
清爽
倒霉
书本
我所
劳动合同
162
做做
255
問題
公用
青铜
乐意
一脚
傍晚
杠杆
540
Wang
口头
撞击
固化
同期
und
山村
rd
薄弱
总督
Tra
pt
不育
动不
混沌
NET
海绵
水流
关机
举止
ated
脸部
莽
通行
升华
GS
打发
167
氨
饥饿
增进
vis
暇
Film
1928
麻麻
回过
丞
布鲁
ink
病症
切断
逾
解惑
when
伊拉克
极力
陈代
position
IG
苗族
羹
摸摸
旺盛
低级
哪一
懒惰
落叶
纳粹
微机
审理
960
获利
定性
365
139
無
ative
不全
Ru
西汉
翼翼
交大
发源
溯
CU
ition
怪怪
壁画
萌萌
制服
太守
實
羌
公会
美誉
献给
投标
日月
歌迷
666
可比
绰
隐瞒
cp
用电
威尔
ven
凡事
虞
е
脸色
奥特
接壤
這個
做错
night
一键
Sho
保鲜
比特
开房
AF
狙击
体外
打人
口水
工商管理
气血
柔和
九州
Da
TH
ore
医务
11.2
ound
房东
羊毛
千瓦
投保
土木工程
萎缩
驶
野生动物
π
刷牙
Don
Am
主治
鹿晗
便携
可控
滥用
比分
私有
捷克
政治部
225
side
茵
不惯
ans
话说
食欲
繁衍
青蛙
言行
星光
杭州市
印尼
刺客
洁净
当局
绅士
烛
啸
第三十四
行车
八九
10.3
警惕
ipad
奥林匹克
肤浅
py
But
231
侦查
助攻
米尔
け
一排
诱发
148
西洋
主播
近乎
使劲
袜
洗面
绿豆
live
补习
蔓
Server
§
人以
Mc
知己
采纳
霸王
原油
渭
別
问下
蹦
连环
不便
犀
几十万
less
不容
老人家
酰
古镇
Cha
详尽
PL
肴
衰竭
这门
腹腔
灯泡
昂贵
血统
走走
洗头
膀胱
type
Is
血腥
Pl
迷惑
高人
摘要
无缘
光圈
里克
1100
中将
编织
正直
无神论
糙
白金
芸
坦然
太宗
天文学
钻研
乔布
就医
民航
胆小
航海
黄油
倦
泗
小店
花纹
婴幼
产出
慕容
中山大学
各家
武力
英特尔
成形
脊柱
流星
196
韶
壮大
公约
伴奏
贬低
涉外
细细
麓
芒果
杂质
支架
ient
下楼
312
溃疡
丝绸
骨子里
哈佛
淀
二十六
油菜
干事
功力
真菌
被害
白马
原地
228
氯化
泪水
ney
双十
主义者
say
vipabc
え
净水
毛囊
范例
旅游业
兰花
共分
可悲
温水
传教
肛
所处
教官
混淆
开出
Gra
反转
溅
и
必不可
喇叭
水浒
之子
宏大
造价
札
敖
174
come
教书
诱导
摧
流转
不佳
TD
特异
sha
border
顿饭
光谱
歇
愿景
值班
团委
德州
经贸
its
趾
恳
外围
诗文
ook
提炼
读取
转过
挫
猜想
奕
调和
ric
匈奴
腥
卖萌
脊椎
计数
1280
端子
传真
动植物
局势
插图
数年
湖人
阙
手枪
甲基
World
杜绝
狭隘
永浩
小妹
工农
收音
头来
回老
篆刻
萝莉
ood
奥迪
片面
手绘
汇聚
李世
碍
1400
迷恋
俄语
衡阳
IV
睛
TFT
攻关
有多
ple
逃脱
伺
马拉松
data
化疗
高尔夫
MX
沧桑
悬崖
适时
ama
ough
开场
吉尔
宴会
IDE
虚构
lic
沮
小猫
十点
某一
一等
爱护
cor
Excel
间断
待机
腰椎
bra
锂
倪
古籍
life
病原
note
侦察
搜狐
赘
默契
多长
应力
小众
瞧不起
谛
揭露
壹
大意
率为
毛发
mid
交警
ense
钢板
独生子女
現
椿
马桶
麽
情书
146
英超
over
来访
亲生
里奥
固执
涧
IO
316
人大常委会
釜
has
第三十五
酸性
Ju
Hi
ose
整套
经络
时要
小学校
boy
四面
山药
za
rid
2020
饿死
des
抗菌
起伏
厚重
遁
伤亡
孢子
传记
官僚
荒地
∀
粟
中式
战友
票价
揣测
台风
太远
lf
星系
erry
303
流产
LS
牙刷
软弱
所得税
少林
碱性
马蓉
流出
恨不
星驰
高出
消炎
笙
武警
饥
挤压
无私
sl
长长
防卫
匡
希特勒
恐慌
上古
手腕
ok
mini
影视剧
体能
绞
瓶子
Un
迟早
禁用
語
晚报
毕业证
不一
牛顿
二世
元化
知情
绽
野蛮
冰冰
put
眼科
Internet
教育学
放过
首要
社长
首创
科大
制剂
踢球
竞选
file
蒿
棋牌
堵塞
8.7
分不清
博大
此地
zi
樱桃
que
body
学识
挟
仍旧
凑合
uc
两国
光彩
出卖
我哥
庭院
DIY
一文
工艺美术
大使
菠
本体
打过
悼
rap
掺
ings
坦白
俏
191
清澈
召集
LD
四人
一百六十
两地
孝顺
埃尔
店面
皱纹
植被
收敛
802.11
挪
任期
咦
午餐
强劲
人用
皮革
sub
太快
主权
缓缓
PH
简便
恶化
区位
文史
固有
麻痹
简明
磁盘
410
老罗
灌输
二氧化碳
cer
路人
升降
娄
油腻
PT
医保
大巴
人流
ted
牲
酉
清末
不喜
追寻
既往
纵向
目睹
呼叫
龙门
aw
表皮
无双
第三十六
焖
ath
党的
明珠
巩
开支
问卷
所作
墙面
节假
颅
早早
地貌
9.4
涂抹
民歌
教务
花朵
姑姑
反面
安娜
万万
680
乡下
226
簇
双层
Super
北欧
前行
驾驭
抵触
不介
数组
抗震
val
種
私营
How
稚
紊
优酷
全景
hen
皓
剖
悲惨
特权
广为
BT
矛
双子
张学
不正
国荣
随心
未曾
喷雾
睑
repeat
综上
旗帜
建制
烙
雅典
Of
光照
屋里
汲
匾
LCD
绿地
松弛
曲面
荀
体制改革
问候
淤
linux
零花
OF
失调
ั
课时
之美
万字
静止
烟花
敏锐
people
金曲
晦
530
日历
崇高
888
solid
化身
副处
放映
几块
Her
洗碗
580
д
澄清
布拉
Po
异国
实事
荒山
测验
奈何
望远
197
decoration
工伤
崭新
揭开
音量
它会
world
more
灌木
内脏
7.6
邢
880
公证
孤儿
心上
珍藏
感同身
芹菜
南京市
我們
泾
movie
下垂
长子
盛大
曼联
半球
ert
阻挡
rea
Sch
膨
互助
暂且
空格
游击队
南宁
mark
总额
Sun
联动
拳击
海滩
电线
防盗
tes
豌豆
惠州
客气
病虫
一刀
躁
睡前
even
Journal
实实在
久之
空闲
丛林
迷宫
常态
拓宽
纯正
寄生
公共场
宫殿
Pre
恭喜
太累
投身
9.7
ole
舆
强壮
棒球
bar
疗程
233
Mu
地下水
浴室
低压
擅
War
勾搭
劝说
第一百五十
伤人
動
9.5
敦煌
RNA
烹
季后
扭转
吸入
FA
黔
就别
ensis
水深
一百三十
赞赏
严密
农业部
驿
box
彤
好运
十一月
明日
首饰
RMB
霹
嘉兴
ism
黑洞
流入
н
电子邮件
跳楼
拉萨
LG
北海
半径
秧
美貌
呜
纶
灸
北路
退化
GE
如是
钢管
自以为
Science
一试
勘察
时钟
致死
308
蟑螂
短片
镍
直流
尖锐
前所未
椰
ries
自强
远古
推断
记账
天河
今生
稳步
通通
奥巴
尘埃
展览会
惊悚
多用
David
井水
原产
yn
硒
威海
斑点
社会保险
团员
Core
政委
嫖
丘陵
朴实
开放式
衣物
rom
万达
两本
茧
瘀
牢固
紧凑
lt
ular
迫切
胜任
文化部
皮质
沧
廉政
hover
走来
ness
服役
邮票
251
避孕
微分
盏
所欲
变色
有效期
共振
each
宋朝
心头
暴风
不离
棺
美式
爱美
岭南
信息管理
夸大
Power
时段
reg
废物
第三十七
囤
骨髓
咚
可贵
322
贮
悉尼
11.1
娴
特区
蘸
cur
着眼
芝加哥
投行
感官
ㄢ
雳
淮南
很早
双人
蔓延
菩提
self
有句
泡泡
分行
掉下
喽
6.6
优缺
燃油
众筹
离心
塑胶
放射性
克隆
161
HE
cr
汉化
周恩
胚胎
HI
要学
粘膜
郭德纲
大喊
盘子
ィ
har
戾
tom
贯通
幽灵
不完
feel
决不
时而
good
梢
笔下
循序
iss
半身
氏族
葡
丰满
關
中立
企鹅
民法
褶
置业
争执
果汁
瓷器
色谱
冷藏
cent
漂流
梅西
雇佣
三甲
皖
高冷
悬疑
化为
闽南
锰
播音
安检
挂牌
婿
目测
药剂
搬迁
ys
坚固
tain
裳
eak
交替
鸡精
810
以防
305
Bu
霄
ute
中國
不甘
半月
大将
膳
重启
方可
一点儿
ping
die
另类
华山
芳香
止痛
俭
凋
蜕
毯
购置
降临
谦虚
ERP
坐车
大杯
第三十八
角膜
求知
ring
筹建
Ver
英美
229
镶
大选
看得出
年来
输卵管
宾客
ero
药学
类比
点心
茄子
铝合
345
奠基
过错
翻身
毛主席
顾虑
ox
叠加
韬
巴尔
臆
记事
259
-_-
文理
省略
获胜
TL
贬值
Day
nn
久久
房贷
克莱
翻墙
douban
some
笑笑
稳健
祖宗
潍坊
朴素
.30
血糖
朕
经商
我想
辱骂
可想
聚餐
sing
史诗
折射
锅中
杜甫
コ
妄想
武昌
ult
mar
东山
学前
蛛
长痘
凄
跟上
新一
高地
刨
魔力
试探
买买
产能
多位
俘
高价
飞翔
DN
往下
矿泉水
骨科
六大
打野
col
可知
核电
610
金华
封锁
公害
机房
雨水
bs
若有
芭
救济
合影
阜
̩
站长
两层
转账
顽
饵
预见
海口
刀具
助力
节度
招待
乙醇
唯美
南朝
金字塔
走到
没说
哪来
辜负
len
重叠
饺
日光
焰
石材
图文
630
孕育
大展
评比
台式机
台灣
捆绑
午饭
中兴
私家
提成
完饭
藏族
革新
北平
arm
2.9
篆
类人
fin
子弟
258
20000
无条件
衣食
几秒
NI
峭
月入
辗转
内幕
瞪
挤出
冰川
OA
张力
自考
芹
一出
末端
园艺
爱国主义
脸皮
佳作
泉水
怯
无声
潮汕
坏死
孜
一字
AY
过硬
青岛市
BI
招募
石膏
请勿
仙人
宣言
153
新奇
肇
八角
蛋黄
千古
拍拍
米粉
颤抖
受限
编导
002
特级
OH
严禁
鞠
金黄
电极
课后
水温
买入
二号
SEO
操心
无故
可言
Live
曦
凸显
五一
球形
格调
智障
Har
福特
性情
给我
大头
逃出
契合
东坡
名列
购房
干旱
活塞
宁可
棒棒
军校
樟
选秀
men
贪污
孟子
后备
网红
甘蔗
话费
宣告
更深
隐隐
综合治理
路程
PU
膛
可观
ˉ
多发
某宝
癸
火花
脐
193
发呆
以土
宰相
打打
明细
征求
三十二
干过
194
第三十九
镑
配偶
冲刺
秋冬
一百九十
mail
一不
CMOS
VPN
隐蔽
逆袭
迫害
逼真
门窗
顺畅
点多
db
爱因
矿业
平坦
出柜
摩尔
迪士
邻近
252
娥
广播电
里亚
安稳
排球
TOP
纯真
醚
厂长
无害
风吹
伊利
下达
民政
star
新闻出版
羟
三五
独创
软硬
年均
期徒
性爱
黛玉
构件
非线性
五毛
PLC
庆典
ext
远大
音像
遍地
内阁
荔枝
三家
演练
得好
开来
锚
滑动
妥善
瘦身
外向
壁纸
惩
回路
两万
lay
权衡
孔雀
会想
TB
ump
没得
减弱
凛
校门
Music
oth
单亲
蒙古族
馀
深沉
Photoshop
损耗
巴巴
建构
买点
era
素有
第四十
北纬
从头到
热线
老老
ano
ナ
年华
混混
苷
治好
归于
参谋
288
陛
结核
一击
超声波
沐
琐
佳能
吴亦凡
秆
时应
高超
长征
亚热
文帝
抽出
板型
以求
嗓子
自慰
Lesson
胁
fer
小鸟
客户服务
往返
Fr
分红
264
亨利
方块
大风
麒麟
sen
现身
醛
USA
顺应
241
激进
势必
1926
充当
大法
搂
399
祀
一角
第一百八
萝
ita
大姐
巳
FT
编者
心肌
ck
逮捕
因為
顽强
间谍
Comp
收养
Up
离别
唑
打入
行政区
灭火
兵团
Michael
参谋长
QAQ
ith
Ri
职高
国旗
西门
傲娇
重伤
發
NVIDIA
730
鲤
臻
打听
王道
荚
尼克
潜心
细微
富豪
窗帘
五四
system
讹
无色
ND
融化
功课
PDF
318
大佬
宜昌
副主
title
脱颖
470
厮
欧冠
WP
口才
造纸
当面
宝玉
chan
メ
欠缺
降落
印发
绛
不耐
八十年
殴
复古
5.9
妓
山谷
ble
SR
计生
视察
潜伏
一百四十
贪婪
红豆
伯格
站台
别忘
产阶级
苍蝇
斯克
三岁
克里
翻唱
特许
进出
性命
芜湖
EV
引来
风波
发力
完工
英勇
致敬
仑
390
保暖
写实
罗马尼亚
巴基斯坦
健美
改版
无心
Data
城中
rr
小巷
璐
霸道
截然
活血
猎头
め
监事
试过
刚出
农机
急需
6.9
unt
321
安安
水文
12.2
爆破
At
UP
出道
店主
雷斯
少将
工商行政
天皇
地中海
胶片
石英
排毒
開
桂花
侵入
解救
TR
励
his
张艺兴
RP
ations
殴打
nel
sw
一见钟
ú
二十九
殖民地
楞
亚运
献血
华硕
借此
ari
淹没
襄阳
820
趋于
急诊
骨质
重男轻
位居
导出
波特
牧师
茹
变质
篡
ev
蹬
坦诚
涡轮
music
无能为
dpi
地表
DB
之争
敲门
tech
听得
缀
✧
骆驼
喝醉
想得
ABC
羽毛
不经
盆腔
IL
卸妆
几部
ik
325
敷衍
接吻
人头
贮藏
遗留
Max
UE
朱元
自立
写过
8.0
电能
会费
辨证
传闻
好些
犯规
并行
再来
表扬
呼唤
脾胃
MAC
198
间距
311
矫
先天性
瑕疵
bin
浮动
Work
蔑
乌鲁木齐
机车
Chen
解毒
相对论
二三
以至
char
扑克
oto
LOGO
枢
辊
草坪
越野
上万
狂欢
支部
工艺品
石刻
图画
盐酸
虚弱
转运
调戏
后遗
音乐家
进阶
铅笔
举措
流血
中老年
磨合
布朗
一元
游人
诸如此
取舍
百八十
MacBook
养育
cho
吃苦
裡
中层
不符
绯
猝
闪烁
匣
王牌
定额
入围
well
餐桌
Em
进门
cha
国会
打成
碳水
事变
SK
作死
单调
集装箱
风湿
美工
诉说
采样
iu
內
tur
叙利亚
壤
510
北京师范大学
图解
击中
昆仑
sin
一栋
希尔
硅胶
they
食盐
Pe
夏日
花花
重型
清热
领军
Ke
地理学
志同道合
疙瘩
肺炎
饮用水
闵
客座
拣
沿用
镇江
三十多
抬起
Sc
谋杀
镶嵌
说不清
柴油
挥发
多好
关羽
满面
拥挤
一再
van
家庄
大开
401
嵩
贫富
粉底
从那
620
拢
710
红烧
勘探
勘
WA
祝你
圩
固态
加点
琉璃
358
vers
缴费
there
封印
皇上
MAX
信奉
本上
阶梯
江县
山下
pu
羁
汞
可取
杏仁
法兰
1925
四次
LV
段落
グ
传入
暴躁
南下
大唐
时俱
日渐
逐年
函授
糊糊
后会
木马
永生
极管
黄花
秦始皇
快播
唾
立案
而论
港台
勤劳
冰雪
多变
生理学
正视
特技
安抚
谬
表姐
ming
热处理
yan
身子
无毒
疏松
扣除
姑且
want
ux
患病
表妹
千金
地层
大象
DJ
wo
几下
平整
244
about
ban
亲眼
狩猎
邯郸
High
NG
12.1
肾上腺
ニ
申诉
多方
山海
call
frac
念念
岑
招牌
怠
直通
联军
同级
翌
安妮
加固
畅通
大雨
基数
バ
动静
CB
消遣
务局
清凉
不争
亥
学学
fu
很帅
史书
NE
薄荷
ike
废水
虔诚
重返
五点
进货
颇为
鞍
低碳
傻瓜
调配
BBC
满脸
特邀
假日
RPG
Sol
博物
洛克
暖气
简要
309
组团
如来
繁琐
Fa
工程学
拳头
坯
片尾
交接
张扬
映射
ム
洋洋
弥漫
体温
琵琶
不分
大庆
风靡
所见
聆听
橡皮
第四十一
珠江
甘草
忍心
VC
乐视
上场
服药
乐曲
山林
凝固
甲级
九江
鹊
方便面
肛门
课件
反向
糖果
白血
剥削
坎坷
水墨
颜料
架子
六点
仙女
vertical
辛辣
ew
狗血
妨
示意
得来
沙拉
249
科尔
求婚
没落
抛砖
神州
浪潮
ics
督导
一盒
厌倦
初中生
中国移动
機
ful
放电
高明
lat
淡化
附着
点头
单子
疑似
皮鞋
佛学
松下
煤气
民族主义
香料
栅
忍耐
国际标准
排泄
scroll
深知
亚历山大
元旦
公文
百零
钵
品德
药师
瀑
最难
冰糖
里程
與
字形
生态学
让你
run
轮流
中关村
抵御
pos
正比
路子
至关
皋
道光
琢
わ
think
翰林
高管
内疚
中信
姚明
暂行
飞跃
已久
cs
客车
银杏
胜负
换算
乱世
伪造
499
无缝
心仪
thing
吃力
遏
清北
祛痘
向来
憎
传导
√
影音
摇滚乐
手头
冬瓜
Red
清香
金陵
始祖
车轮
红楼
10.4
穿透
應
翻开
一封
戟
唧
脱水
林木
UL
投稿
青龙
一包
皿
意想
站立
arch
气流
温情
及格
從
瑾
双面
每秒
sy
大明
镇压
痞
辫
海南省
蕴含
焯
生机
富帅
艹
第四十二
Inter
稽查
出钱
买过
AG
试想
qi
Micro
一千多
11.3
SNH
膺
鞠躬
aa
挂科
排气
延期
head
车载
pad
天性
荷尔
柜台
最高人民
建筑学
TU
理会
游行
蔷薇
现金流
襟
软件工程
汤姆
fr
地毯
太强
〒
监护
黄褐
扩充
than
幸存
幼年
高空
药店
育种
刷卡
冰冷
印花
维也纳
航行
Design
Let
555
箫
离退休
三等
尿道
760
罐头
307
徒步
无罪
补给
坚硬
小班
小黑
觉悟
368
Gr
两件
242
經
电子科技
供养
邮电
鳞片
谕
自卫
rain
博学
San
悸
波澜
打磨
里边
一盘
大字
殆
return
COM
油漆
菠萝
302
容貌
.16
没考
施肥
歹
昏迷
校正
itch
谩骂
10.5
马铃薯
动荡
从何
late
风机
殉
钮
书房
科科
日夜
窘
Tri
偏离
调剂
保姆
降价
古龙
都督
张家界
△
Dota
Ben
杀毒
造假
翟
通水
修身
心事
制式
gl
宏伟
留守
易学
单体
木头
西安市
306
经济法
main
有意识
首播
萱
便会
蜡烛
Shi
ャ
Pi
Tom
三相
剪刀
稳重
不问
解码
face
背负
玮
lock
摩托
不放
效用
南方人
诞
导购
Visual
点火
名下
末年
千秋
ont
孚
词曲
蓝光
所能
328
留校
大清
驰名
视听
整车
rin
1912
余万
Fu
皇太
亲朋
酵母
仅次
待人
AO
轰动
兼容性
tern
圣地
oll
推向
堕
ker
看不清
油气
分层
靡
尖端
起因
570
斯拉
认清
止血
辛亥
GeForce
接种
2019
大名
海滨
一岁
征集
生产厂
阐释
戌
数次
倜
提案
上周
比率
烘干
็
特大
滑稽
披针
支招
煸
外用
入会
台独
不穷
中国家
工业区
螃蟹
树上
金星
新作
点名
维基百
行各
萃取
引玉
baby
供货
抓紧
互联
立面
桨
12.5
MR
软骨
作品展
夭
宠爱
会计学
ane
黑头
靓
青梅
讓
生源
cus
冠心病
古风
冰淇淋
tw
科夫
城市化
008
人世
formula
touch
抗癌
Ps
真皮
官兵
日晚
纹理
听取
317
居家
降雨
白发
洽谈
rate
听觉
专员
瞅
MPEG
财力
荤
pc
尔顿
气动
科教
慕尼黑
疣
衣着
保值
nu
强国
橡
拥护
并列
迅雷
尼斯
ization
果树
根治
盎
昼
高楼
昆山
ust
牛津
读博
殿堂
惮
htm
预先
抗氧化
值得一提
潮州
wiki
气愤
花儿
拦截
痛快
婶
open
take
rop
活得
文摘
第四十三
Yu
tle
ami
赛场
两岁
哔
一派
FE
前排
绿灯
sis
环形
給
ò
瘦肉
๎
orn
全美
停不下
266
断断
水下
财物
彩妆
过滤器
balabala
智者
跟进
久而
流水线
第四十五
采矿
驹
鸡腿
埔
1924
医护
pH
衰弱
堰
大洋
趋向
前人
找人
乔木
陪同
涯
尊贵
百强
封信
じ
AND
宽敞
古怪
掉落
ain
透气
mic
诠
茄
扫地
淄博
药丸
ort
露天
恒大
桦
偏远
淌
至尊
汶
金牛
人类学
大树
交响乐
見
nor
侵蚀
哆
Cu
恬
淇
勃勃
温室
隅
包袱
005
知晓
怅
237
荷花
称得
归类
夹杂
总而
行事
268
手艺
now
掩护
归结
试剂
渤海
VE
现时
火炬
穿梭
黄豆
小丑
赦
冷暖
洽
涌现
酿酒
魔幻
手脚
吞噬
Med
276
煎饼
不绝
油耗
看不上
三省
限量
青菜
增收
民意
洗白
打通
ASIN
Express
锻
首相
触控
恺
多钱
lie
1919
毛细
ture
Top
十里
条纹
IR
油烟
之名
阻塞
深海
偏执
拜仁
ブ
弹药
LZ
二元
蝇
畏惧
乘车
少年儿童
小鱼
そ
飞速
印第安
雪花
越过
幂
手势
愛
北魏
颁
切开
交了
檀
说谎
隐居
新秀
汗水
GN
越狱
岱
颓废
主食
玺
满洲
绚丽
河西
补课
ors
装机
一点一点
总分
挂号
海湾
花草
004
漳
gan
485
效能
墨水
校外
load
四百
319
放纵
逮
羽绒服
一则
日趋
信息产业
毓
八点
ship
汉中
小岛
通货膨胀
王家
Zhang
沥青
鸭子
云集
点缀
客串
修补
She
相符
四位
样板
冒犯
一曲
马尾
sky
og
明智
中草药
瑕
反差
草根
减脂
逾期
pdf
song
心安
Ge
硝
共建
鸳鸯
第四十四
洞察
亢
传球
成败
TY
置身
湘潭
老乡
天马
247
biz
玲珑
无所不
武大
粱
韵味
没带
哪天
呛
领地
头条
trans
南美
切削
Mr
高薪
慢跑
Net
Black
军阀
无异
副科
水里
全国政协
近现代
ham
刹那
oom
尔特
UR
船长
贩卖
比尔
从根
日程
ather
内线
编纂
连连
名言
年春
着实
植发
福音
第八届
调皮
爱慕
眶
eu
exp
侬
酰胺
品格
出厂
山路
虚无
油炸
殖
褒
费劲
Life
卫浴
致病
手足
怪异
們
反动
光大
拿破仑
rit
free
cu
262
河水
感光
石榴
脉络
Mark
ks
不请自
特工
呕
笔墨
罗伯
等离子
剑桥
院系
来来
买下
ē
gal
坚韧
鲤鱼
铎
腌制
try
钢材
玩得
位移
大堂
采收
dom
src
ware
mit
太湖
BP
381
护卫
ove
314
三十三
航空航天
龙岩
THE
五十年
ame
女同
追问
巍
下场
6.7
骇
郑州市
nt
外包
戒烟
港澳
本作
Out
芡
寄宿
抵抗力
Open
ju
汕头
善恶
整顿
就诊
佛像
ons
珀
乳头
广深
老娘
低俗
小额
平县
拉面
德华
FR
北面
深得
视网膜
254
mag
买菜
写写
鸦
国军
接线
澎湃
att
荒废
gin
rus
通透
上半
科举
瘫痪
咽喉
三世
葱花
嫣
骨架
画像
с
oot
gar
减压
丁香
那份
243
ress
沼泽
之士
第一百七
秦国
稀缺
返还
lot
无产阶级
尚有
辍学
CSS
小鼠
紧接
Sub
幻觉
赞扬
谍
phone
滤波
穿插
萌芽
参议
牛皮
政治学
Base
she
谈起
涟
加成
jo
Test
how
惊奇
腮
扉
之交
邂逅
转到
跆拳道
杀戮
挽救
无忌
313
跋
强硬
码农
凡人
环境污染
痢
叩
交响
结印
酵
暴走
马力
uo
咕
style
某天
军工
领略
本文
プ
空心
洞穴
р
乳液
假定
雪山
磨练
題
GPA
报仇
马赛
梁山
菁
List
结交
裘
参军
林丹
八路军
七点
不比
only
MW
直流电
不受
HTC
迁徙
独裁
ㄒ
健脾
沿岸
生殖器
对劲
逃亡
cat
English
ε
.13
专任
莫过于
市内
.90
南县
满天
т
历来
AAA
九十年
cle
得体
一格
分娩
国民政府
潇
闭上
中队
center
党建
河东
公安部
大作
安宁
供求
寿司
問
名医
弩
一并
铠
学风
笑脸
降温
病态
慷慨
Girl
接头
二等
5.8
285
锅里
吉利
急于
新房
专制
育儿
无一
980
改委
定型
高产
五笔
灵异
under
特么
熬过
cre
决算
八一
host
鹦鹉
Ed
城管
想不起
840
功德
耳边
求是
值不值
引出
咩
先驱
正中
言辞
Sh
mor
鸦片
绢
一晚
柿
械
cul
光亮
呜呜
猩猩
外挂
不快
003
配色
烃
离散
利物浦
制图
格子
乙烯
246
PLAY
rg
胰岛素
白痴
深感
下岗
电荷
97878
牙膏
yi
利尿
格雷
wi
辛辛
Paul
诚恳
分界
278
常说
易经
其父
树种
ada
骆
中奖
暑期
全心
准时
编入
螺纹
含蓄
识字
繁忙
Chrome
小巧
噬
LM
领养
del
混杂
阿卡
瑰
還是
UT
攻克
function
质问
私密
素食
床头
全真
抗争
直言
蔬
分布式
pop
小城
lex
直肠
报社
城南
布雷
世事
ves
傻傻
外接
▲
耀眼
柑
2300
发财
大肆
京师
xy
双胞
配制
追杀
Vo
颇具
减退
愚昧
榻
1700
PVC
熹
出锅
眼角
Min
沂
爬山
ior
痛心
暴雨
万亿
荧
肥皂
杜兰
gr
Free
瞻
怦然
漳州
生肖
Big
象棋
红颜
坚果
non
橘子
KE
龙泉
三项
宙
退回
幾
修道
西山
经济体制
人像
大西洋
腑
车里
原装
File
鳌
天台
5400
KO
想学
国家税务
动辄
媲
离奇
在此之
写得
253
骑马
大理石
内陆
握手
山中
ǐ
性行
乎乎
军衔
寄生虫
土著
水位
BR
外墙
生猪
行政处罚
紧邻
mol
大山
王府
脸红
白头
核实
三万
军用
整部
自控
大麻
细思极
记下
惊天
苏宁
外伤
前十
救护
曲艺
Gi
贵重
江河
肖像
EF
卡特
就职
狸
欧式
邪教
保送
261
唐僧
权重
NPC
延缓
FX
贴图
混血
彝
生怕
浦东
盘点
逞
继电
汾
傍
HC
防爆
族群
PD
2400
水系
癣
理化
柳州
KI
2200
や
文身
差价
激起
pen
秤
第四十六
有理
heart
濑
成天
儒学
零零
售票
痴迷
薰
红薯
糯
皮下
开国
游记
所措
货车
斯大林
Store
ret
抗原
仅此
小三
痿
晴天
祐
母乳
逗比
拘留
pm
断绝
uff
duct
切尔西
农林
fo
穷游
几百万
高丽
科技园
啰嗦
黄牛
迅猛
一班
抱抱
人寿
要塞
拉着
公示
Alpha
458
BUG
漫游
软化
维多利亚
报关
鲜血
This
功劳
外事
古建筑
济南市
格拉
gs
写信
........
分流
亚当
Act
叹息
全额
ida
萨尔
利斯
理赔
神农
一统
总要
Du
花香
外省
河口
单项
各式
顺其自
335
0.01
If
短裤
贵妃
推介
手掌
滑板
大局
卡车
庄严
矢量
元器
鬼神
豚
牵扯
脊髓
格里
501
nic
mal
食管
Mini
太监
ppt
爷们
vel
可口
小便
沈阳市
巡视
安防
埋怨
过时
之声
龙虾
提了
Gen
化肥
质检
细长
ora
沒有
簧
Kindle
憾
苦瓜
换装
一通
909
LT
乡镇企业
说不上
長
菲尔
大写
威尼斯
006
芦荟
农牧
创刊
禀
Master
硫化
树叶
哩
狭义
投注
一旁
少少
腐女
idx
午夜
普洱
泥土
中亚
空前
枉
論
车票
数万
ュ
产卵
清风
白雪
优胜
动用
过失
走红
洒脱
pri
方舟
回民
Note
000000
情话
山东大学
古装
scene
小明
锯齿
华北大
api
乌龙
mAh
组队
佚
lar
诸葛
烧伤
uang
腱
羞辱
第四十七
纪实
870
兩
鸠
汶川
.19
圈内
朦胧
家家
安德
傲慢
下颌
帜
公尺
電
纸巾
浓浓
天蝎
斯堡
张开
耗电
农业银行
Type
诬
乌龟
宜家
泪流
收纳
方正
宿命
顽固
载入
满怀
史密
邃
传世
660
红星
書
大户
隋唐
TCP
受邀
apple
潜移默
围攻
暗杀
维斯
集结
墙体
一个半
血流
马德里
一目
肝病
之神
last
显而易
start
星辰
对口
短路
IOS
社会治安
干线
田间
银行业
泰安
颌
玄幻
烟火
ura
never
桃源
安庆
四点
阴茎
交配
战车
万岁
863
法案
295
瓜子
四十八
ious
蟾
预热
北伐
外籍
九点
出水
计时
MIUI
神学
JPEG
赞叹
他們
考评
偿还
跟前
隐约
堕胎
高处
GPRS
体裁
织物
济宁
换位
13.3
script
大衣
imp
核定
贮存
GI
抽奖
沽
WAP
被盗
1922
迥
2100
洛夫
妥妥
蒸气
Liu
赚点
View
雷军
贝壳
̴
座谈
〜
总得
pho
距今
Sam
404
SN
JB
每逢
成龙
村上
光是
同心
瘦下
片刻
WMA
全靠
单车
AW
求实
接管
举手
fun
263
1911
内饰
挨打
长沙市
曜
瞄
点滴
水量
独厚
炽
预售
地基
缝隙
嫡
NK
认出
劳资
法拉
店家
买到
仅为
rum
见效
野兽
最合
筹资
667
考古学
Just
俗话说
一艘
唠
福田
刺杀
WIFI
踏入
Ag
FP
红茶
之以
1923
暗中
uk
Op
底子
公务
无须
选为
排挤
曙光
英才
荔
沦陷
雌性
娱
取景
应不应
华西
残粉
涉足
净土
明末
摇篮
义乌
记述
极小
一塌糊
唐宋
流利
一局
听从
噶
King
三菱
烹调
寰
贬义
餐具
榕
副总
作法
肥料
チ
聘用
670
玄武
置换
显现
豪门
公知
∇
个案
小花
境地
集资
先秦
党派
秦汉
OG
猕猴
锅内
上当
空洞
滋养
淋浴
引申
祺
网格
ori
很火
迟迟
ray
串联
运送
求生
子房
古巴
ett
first
著述
野战
绅
牛排
毅然
Bi
欣喜
思潮
射程
随笔
赴美
皮带
适于
综上所
雕像
儿童文学
耻辱
琊
doc
殇
旁观者
离异
不玩
文稿
绵阳
天山
但愿
缺口
精简
热火
学园
帛
落成
cept
廿
南面
plus
Ann
伯爵
游离
推迟
施加
卡牌
可调
惬
绒毛
留着
油性
班族
五彩
遗失
Best
朝天
Rock
预设
刑罚
拉动
磁性
党和国
俊杰
预料
SUV
摄氏
分析仪
裂缝
前瞻
store
article
漩
Ko
申论
全天
中国社会科学院
几百年
维吾尔
喷射
维系
校风
萤
北洋
office
14.1
景德镇
ection
欧文
贴士
ARM
边框
惋
许久
12.3
来历
架空
336
内蒙古自治区
守信
洗漱
aceae
敞开
遥感
咐
为人处
主宰
Book
lum
男同
上将
炊
fl
巡回
不善
韧带
铁路局
传出
学系
进水
天门
奶牛
自驾
tical
复试
西边
变性
智利
海带
KM
说唱
择偶
CAS
分隔
字眼
睾丸
384
Your
UG
张图
悬浮
诋
422
远近
益气
尿酸
养猪
第九届
̇
lib
梦中
阿富汗
音乐节
奔波
324
小红
义无反
讲学
过早
冉
Qu
涨价
ella
按下
Radeon
地摊
财税
风趣
作坊
385
军委
整改
新车
第三季
盗窃
挑衅
大江
用词
恍惚
618
根基
血缘
灵芝
填报
帝国主义
一票
不免
耐力
鼓起
拉拉
踏踏
大坝
气管
气泡
关税
含金
lg
ini
James
天内
oph
交错
政策法规
存钱
身在
含水
轿
电量
寂静
处以
oy
Control
人缘
救人
戴尔
大侠
寥寥
版面
寄存
骸
眼线
下肢
敕
担负
托运
近两年
山镇
夯
馍
独行
共和
病害
Phone
时效
认错
脯
昼夜
香烟
大闹
一招
溺
大兴
ating
荒谬
国税
采摘
Robert
化验
昕
vin
龙王
延时
警示
®
隐身
欺诈
湛江
山楂
分之二
伤病
内膜
亚迪
波士顿
胡乱
硼
峨
〇
螨
弱智
酿造
肉食
姆斯
钢丝
298
庐山
音译
标榜
多平方
眼圈
HT
禧
橱
七十二
大悟
活化
爱德华
抗衰
❤
嘻
铺设
喉咙
民工
萨拉
第一集
研修
称谓
闲置
筐
老牌
情调
神作
361
duc
youtube
糜烂
追星
巨型
合法性
aker
Lee
窒息
红灯
数十年
粪便
成套
学着
厌烦
和谐社
鱿鱼
被判
图中
互换
1921
强有
电影票
公爵
抽屉
南开大学
小块
ize
赣州
自营
ATM
盲人
四军
WiFi
8.6
hin
原发
不公
386
追加
數
皇冠
830
009
造福
可厚
avi
书里
ible
捍卫
大白
老龄
归根结
NU
West
万立方
融洽
字面
267
有缘
排位
厩
下层
FL
shop
呐喊
脱口
ど
虹桥
姜片
高雄
细化
起始
何为
入境
与其说
箍
890
竹马
有罪
san
切身
.17
下落
分段
嘏
抛光
印章
GF
Jack
润滑油
宽阔
党总支
producer
矜
本田
冒出
边际
323
Bur
金沙
底气
血小
得其
茬
居士
官场
并存
总归
茗
很难说
诚心
国债
中国美术
享誉
自闭
硬座
柴油机
iao
判处
北斗
oli
飞天
flash
抗病
网络通信
岳阳
吃过
面孔
嚣
文并
入户
液化
大河
高祖
成才
冻结
度量
解密
近来
MPa
常住
银联
文具
高尔夫球
注视
早睡
抽样
打得
掌声
sina
海豚
母子
棒子
sto
巡逻
缔造
壕
意象
倔强
TER
阳明
追赶
清纯
极少数
柚
灯具
超前
西药
草木
环氧
一概
冷酷
守卫
Mil
单打
index
orz
冷嘲热
厦门市
松江
未免
凹陷
屈服
武当
谋划
祝好
无痛
发芽
拆卸
贿
樣
Adobe
汉奸
总工
痉挛
兄妹
NB
开元
408
house
tv
造船
死心
DF
向量
妓女
mat
只求
咸阳
声望
ym
ben
精明
6.8
当归
关中
太深
筹集
退伍
AutoCAD
枪支
深思
led
11.4
面向对象
变相
由此可
试管
随口
none
横行
毛衣
stra
嗎
改了
物化
读写
801
费力
0.25
375
孢
公孙
发来
得天
出境
聘任
镜面
缠绕
多情
绫
丽丝
越冬
风向
枭
贝克
预科
画册
受宠
噩噩
Pri
FB
租车
芜
不如说
轩辕
大辞
企划
770
农学
两颗
招式
吻合
南开
CPA
基建
ration
沼
板栗
休学
机油
船只
排污
yp
烟雾
民政局
一动
渚
浑浑
晓松
数不多
三元
过剩
长官
奚
闪耀
刚上
地质学
mv
工商局
养家
gif
ONE
统战
车门
索取
文武
外商投资
增压
字节
滚滚
运费
纵队
合租
写生
侵占
Mor
上皮
瓢
13.2
临界
浚
溴
风口
清净
ez
波浪
自答
全会
wp
抒发
las
涝
zy
缤纷
自作
摇摆
新华社
车库
补肾
片长
玉石
砾
事业部
年幼
可可
白富
gent
流向
15000
万公
教主
奥斯
语义
鱼肉
拷贝
结成
地向
学年
lv
汉朝
免税
慨
龙山
胤
zu
古筝
短线
结肠
寓言
11.5
易用
bd
花木
血浆
ō
网贷
舞曲
自负
沿途
Jun
William
尖叫
关上
乏力
onic
石墨
构想
频频
oid
flow
物权
忠于
咸丰
Gar
cess
冤枉
乡土
全线
齐国
停滞
格拉斯
全员
得失
阿森纳
里程碑
新款
长跑
廓
iPod
思义
自恋
党中央
售卖
山川
大伙
胸怀
畜禽
直面
祖师
俘虏
时至
俯卧
除尘
学得
不应
青花
硝酸
堡垒
Oh
书评
一听
該
南洋
一棵
平定
牌照
tics
table
刷刷
struct
尼泊尔
纪念碑
赵薇
红花
偏僻
节选
僻
脖
ATA
怎能
肆意
总计
几代
五通
投射
Val
平价
Pr
元气
Game
救命
印制
1918
牙龈
换代
个头
支教
动工
万家
進
eek
导电
归宿
ally
收发
科技部
490
ula
炙
269
不贵
之年
突厥
丰胸
擀
夏威夷
look
木瓜
诧
信服
隆起
勘查
配以
山羊
赤道
bat
纯天
ū
门下
水泵
印度尼西亚
BY
课上
ken
两眼
极速
悲痛
心力
榴弹
find
西周
书信
随处
♡
知觉
巴塞罗那
保洁
ree
巴斯
塾
胡说
熄
Bill
风度
教区
床位
嗤
326
Bra
绷
景物
猛烈
漫步
订购
查理
怀旧
肤质
鼓吹
聋
监会
肉眼
无事
旧金山
最想
oul
瑛
即兴
送货
剪纸
季风
梦到
放着
KA
全军
痣
add
射频
无偿
filter
ule
281
嗑
半部
ü
胥
交织
黏膜
战败
无理
台州
TG
学界
eat
上交
饭后
太白
2800
into
睿智
叛乱
马来
层出
1111
CDMA
安阳
托马斯
音符
略带
第四十九
电饭
398
一九九
哈里
1.
臭氧
得益
一档
lect
肥肉
加速度
索赔
拉斯
游走
冕
东边
rem
花果
过期
小气
花柱
KV
field
插队
大院
恶人
凝结
豉
曲风
迫不
1366
发炎
忧虑
山河
远东
急剧
毋
伤寒
в
早熟
plan
法理
毛利
琥珀
村村
秀才
GL
ward
Blue
核武器
這樣
School
副县
GM
时事
江北
陸
木板
顺风
演进
试行
反光
克里斯
邸
银川
航运
安乐
Inc
未尝
差一点
甲醇
耐克
1914
别具
整数
花粉
微积分
长老
财会
老天
租借
宇航
跳过
品类
撮
花色
伸缩
国防部
自问
光头
苗木
小叶
oke
新风
画法
限期
名次
吹风
湖州
HB
厚厚
掠夺
佰
晟
May
不羁
多层次
虏
已达
qua
中文网
走私
巨额
节水
推力
城门
重合
极点
吱
罪行
四十五
山里
伶
要花
无畏
白玉
牛人
杨洋
痹
802
浅显
接连
七夕
屈原
缝合
收复
厘
大招
主治医
闫
355
落入
壁垒
ese
防伪
lip
合照
VM
339
UM
業
point
痔疮
几只
print
耽美
截面
归还
.26
价廉
璀璨
动脑
气压
尚可
复原
贴身
纤维素
对外贸易
WIN
上岗
浮夸
衬托
美团
骷髅
次要
没准
王室
海岛
多处
HK
水田
台下
医治
俨
离谱
时速
JavaScript
点数
龙凤
看多
uni
高深
纳闷
氰
闭合
远比
血脉
eck
芷
减免
强加
防疫
四十二
莲子
静音
入伍
重装
ヽ
颚
无所
慰问
忠告
帐户
せ
chrome
月台
洁面
马蹄
泰勒
wow
关东
落到
无以
眸
妇幼
民政部
捕获
春夏
以示
浮雕
咀嚼
中所
马拉
恒温
大雪
变现
施展
时隔
map
Trump
没多大
德拉
摄取
顾名
idea
415
噗
sup
ani
鬼子
不认
懿
族人
心寒
爻
端午
Ste
1913
並
鳖
右上
小牛
全意
梧桐
联播
hol
手把
hand
萃
复查
分清
礼服
谁知
最坏
茫然
三十五
妈蛋
城关
RD
表达方
7.7
书目
伦理学
琐碎
nan
.163
龙珠
渡过
楹
互通
兵法
奥尔
哈尔滨市
取暖
稀土
二十余
不求
中央党
恶毒
eh
小波
认认
凌乱
行政诉讼
百里
应收
牵着
自来
变美
炮兵
第五十
aka
回馈
吃惊
斗志
何不
难怪
裸裸
咖喱
半决赛
慈悲
1917
之多
竞价
堆放
叼
鲨
苏区
单向
溢出
中国人民银行
同乡
松鼠
无损
FO
Id
回转
震荡
明目
连云港
中小型
黄土
红外线
五万
球菌
树枝
大连市
met
闲着
行者
旅游局
玄宗
0.05
黑色素
粗略
东晋
煌
筱
留恋
军民
雇主
二十几
必读
BAT
订婚
弱小
VP
依附
352
大宗
杨柳
宝安
身价
辛勤
游牧
两手
福德
地委
杨过
Model
一池
cover
Ki
lia
钨
篱
高技术
逃课
之二
举起
先知
陂
后半
黑帮
鸽子
bor
tel
莱斯
zo
合力
᷄
331
七大
沉着
ros
2600
rpm
lis
盛开
贵宾
链条
rk
现成
座落
ode
之势
邓肯
大肠
雷电
their
显露
接班
hhh
舵
僵硬
耦合
lp
录入
ズ
大龄
lor
伤痕
恃
填空
接力
千余
侵华
波尔
388
输液
蒙德
体面
wh
micro
逆向
dream
追到
憩
刻骨
移居
田野
rc
lz
need
巅
tect
驾车
᷅
光华
弓箭
卡组
蓟
风范
facebook
蹈
间歇
牛羊
推拿
甜品
楷书
讥
伸展
342
乌鸦
人太多
名贵
婚外
gy
ments
015
去向
二百六十
恍然
拼图
227
积水
特务
珂
淡黄
留有
沓
攒钱
花鸟
パ
找寻
累累
三改
烨
上千
科班
课间
保质
精细化
谋生
出货
邮编
何从
梧
新乡
酌
旋风
media
ダ
咳崩
上街
297
正大
隔音
皮毛
红米
发小
热能
以待
mL
Transform
遛
寞
造反
拍出
多难
kill
槐蚀
边疆
Basic
TVB
早教
保全
gue
新婚
住所
咧
炮弹
高数
徙
鬓
偏重
漫漫
變
连线
青海省
运会
9.6
356
果园
相隔
捆
吸水
柏油
潼
14.2
突围
隆鼻
喇
表层
三环
方圆
牢牢
累死
生物化学
可逆
唯物主义
690
故里
采暖
往上
心怀
濒临
画作
杨家
当众
气功
透析
针织
盘中
九五
必杀
秦皇岛
钱财
何去
顶上
港澳台
恰到
挺大
970
阿斯
西宁
等候
00000
斯托
place
尼采
无可奈何
快到
融为
凝胶
吸尘
胸大
穿刺
6.
山口
烤肉
没敢
本营
366
新郎
画图
mA
转眼
引爆
‧
氪
理所应
ひ
简短
鲈
丫头
针形
降压
一言不
喙
消肿
裁决
range
异物
等价
ities
脑力
布线
Peter
勐
孙权
呼应
应酬
cf
迭代
出游
337
master
毋庸置
富于
攻城
405
亲亲
箔
chang
level
berg
AAC
做作
公交线
遗传学
Hol
团团
假冒
按理
风力
单行
远征
箭头
類
换届
好好学
皮炎
一斤
收银
犁
冶炼
同治
BIOS
朝阳区
战神
克鲁
mine
青藏
臼
ANG
敞
DV
date
献身
四通
远超
牵挂
貂
这般
数码相
心律
狡
ㄣ
塞尔维亚
强弱
版画
路易
every
Ban
株洲
航道
躬
Light
台球
二手房
补救
时才
悄
爱着
征战
图腾
衷心
备忘
彗
Count
纂
高通
留存
friend
334
林立
兼并
长年
鸡翅
DT
亚科
校生
芪
烩
nes
小球
造影
年秋
五味
隔热
婚庆
缉
public
真切
л
伎
掖
奉命
童子
兴致
花岗岩
火柴
自传
18.2
space
SBS
磐
may
交战
332
此种
▼
酸痛
名利
缚
呱
稀疏
楔形
活生
American
炒菜
欢呼
炮友
tre
茶树
信条
信道
鲨鱼
甘油
rel
phy
津津
大红
炒鸡
佟
馋
耳鸣
樵
INT
守法
珍稀
不透
包头
素颜
顺德
nc
着色
侣
ATI
临走
下半
出示
740
阿迪
清晰度
had
不等
unk
嬉
悠闲
题主想
Chi
妇人
Ω
2.
一筹
哗啦
大炮
六十年
琛
sb
转业
iff
象牙
isappinstalled
rent
有色金属
387
滋补
RY
没人会
源源不
故人
数据处理
装潢
戛
50000
纲目
隽
荟萃
联机
power
998
倡
369
一枝
逆天
Code
卫生局
vision
Play
对峙
笼罩
ek
GRE
景气
转战
成千上
高宗
粮油
互不
Port
翻出
再造
标点
灵气
iTunes
通畅
二三十
̆
蛀
来答
零点
alt
惶恐
水路
扰乱
嬛
庇
艾伦
布兰
stan
矩形
轻薄
此项
劳累
羊羊
雨季
一串
寿险
Imp
RF
苟且
高架
挂机
层级
严峻
padding
简体
奥利
完爆
card
格兰
23333
江阴
河南人
ref
明信
KW
which
大棚
lm
犊
root
研磨
WTO
board
漂泊
专一
鳝
母上
连带
新闻报
几首
눈
din
主攻
徨
wan
首映
鸡血
之乱
Class
出新
阂
虚幻
黑点
中产
呻吟
追击
steam
娘娘
聚居
赔钱
taobao
戴着
燕麦
起跑
理想主义
鸾
休假
ガ
华中科技
萎
现役
solo
一扇
also
甙
ola
Chan
我太
建华
荡荡
馆藏
枷
笺
16.8
1910
367
基站
自费
前三
普罗
若惊
内蒙
弗里
ENT
社会工作
mil
搬出
填词
525
总队
ฅ
SNS
中庸
贿赂
nch
抱住
等国
幻灯
婚恋
咆哮
知足
迫于
Dan
常数
920
濒危
铭心
牧场
制高
老干部
bilibili
招人
第五十一
雌雄
压榨
鳃
cpu
听证
存货
UV
东门
炮台
阴性
耕耘
VO
hua
缺氧
断层
普拉
Sta
根部
缺血
丶
预览
强盗
列宁
右下
走近
越长
ates
铁道部
指取
相交
蔗
楚楚
魔女
打斗
诚然
水解
遵义
供销
余家
理直气
性交
Surface
unc
Han
校招
保修期
AVI
无边
-_-#
武则
毛毛
决斗
眼眶
老友
drama
汉口
老夫
集散
机密
贝斯
RAID
书生
吓死
ろ
石门
NY
天龙
精神分裂
湿热
寮
年老
790
静下心
衣库
晋江
牡
心甘情
ㄥ
弼
囊括
摘录
齐鲁
换上
zhi
been
蓬莱
出让
爆照
那群
牌坊
珍品
一万多
坠落
纳斯
穿戴
老太
天水
必胜
乐乐
抢走
did
aj
速成
线圈
排练
三角洲
NP
拗
匕
608
ease
搜寻
流感
非正
迁就
real
一亮
治国
大汉
stat
惠普
进化论
撩汉
竹林
司徒
ǔ
佣
墨尔本
嘶
網
Bridge
秋风
恰巧
加倍
保税
粘性
咧咧
西门子
技术标准
银耳
406
结节
老兵
恢
場
铵
包养
执念
周转
离世
351
ius
秘鲁
義
反问
飞扬
遇难
fan
可读
破损
水瓶
报导
免除
神舟
故而
嚎
酸碱
消磨
Dream
收割
断电
Cho
马特
HZ
圃
储藏
补血
soft
璇
結
网盘
佼佼
报应
ral
半路
SSD
剥离
七星
贵人
山脚
精妙
装卸
世凯
EG
Group
kb
战时
五次
唠叨
ember
诺夫
arry
贻
同食
锦绣
古墓
摇头
高龄
Cal
LAN
住校
校本
Ja
桃园
第一场
奉行
瓯
代代
逃生
合群
双鱼
一毛
双腿
线形
团支
二千
质朴
内含
防洪
万户
天下第一
安康
拇指
张嘴
海事
而上
衙
幌
基因组
当当
十位
私自
胰
多芬
JU
一览
开黑
马达
Boy
白衣
观望
三日
als
柳岩
八方
太差
将士
自理
松松
乳胶
阿克
12000
嚣张
DVI
超标
毛坯
相位
祟
燕子
经受
天府
二胡
旧书
三联
不匿
取悦
403
鼎盛
西服
Par
ato
飞鸟
受力
妥当
共和党
嫖娼
衡水
过夜
食指
402
ㄐ
波音
absolute
昭和
淮安
601
几件
vid
官至
第五十二
传人
张卡
片头
base
筠
液晶屏
力图
二百八十
世锦
Str
答辩
比利
客体
EST
惘
总想
神情
煜
lim
к
麻雀
701
完整性
捻
百科全书
璞
日落
抢占
again
425
论事
天大
較
没完
sil
轻便
单品
顺势
唏
确有
戴上
株式
忏悔
钗
wei
性病
参战
nce
難
埋头
num
玄学
轻型
呼噜
笑点
oss
EB
mes
热身
迷迷
金石
水管
鳄
灯塔
羞愧
敌对
瓦斯
ิ
china
美院
无期
成吉思
取材
管理费
硬性
肥大
眼底
电镀
柔弱
海战
Angel
不需
一席
养狗
百事
劣质
盗贼
young
‵
BF
心胸
秸
前奏
警卫
相距
用尽
ado
节制
克劳
耗时
再三
炜
胰腺
读出
违纪
造谣
舟山
心电图
String
兵种
电车
矿石
颓
无菌
督查
木兰
常绿
三只
开明
大屏幕
平底
丝袜
摔跤
590
脚趾
出入境
充血
乞讨
多维
aff
钱币
腐烂
倾城
干干
院内
fb
独占
近代史
缓和
加盖
沧海
应俱
刻刻
蒸馏
开开心
辽东
盛宴
考题
旧时
油墨
精炼
爬行
战火
圆圆
普法
太阳系
诲
水池
倾心
盆友
咬牙
特价
尼尔
凉水
戍
求救
历险
报废
Tim
eth
猪油
肉丝
gra
违章
互利
That
忐忑
李志
十一点
颍
讷
有偿
占卜
lon
冲压
湖水
711
UB
估价
睫
信阳
would
皇子
̫
饱受
售楼
杀虫
就餐
停电
害人
练练
英伦
单击
Research
前程
医闹
思绪
病患
五脏
雄伟
Yang
文盲
电气工程
抬高
蛹
真伪
青云
半山
DX
瀛
邋
南岸
卫士
师德
生硬
递增
間
341
Mn
热力学
1916
金丝
ゆ
浣
wen
喷涂
罢免
电热
木雕
轰轰
总论
串口
With
him
压倒
慈禧
808
英俊
枝叶
pot
噜
幕府
535
文昌
热电
钻进
注塑
HM
学府
农用
犯法
轻工业
When
rian
不如意
考得
卷入
藏品
尼康
洁白
毕生
笠
科技大学
不以为
普森
晒干
杂草
group
覺得
宽约
战死
北海道
受骗
叫好
张口
调速
1905
二百四十
椰子
采光
nice
语文课
实为
郑重
els
oe
合肥市
喆
翻翻
非营利
工夫
公车
特写
ェ
十来
器物
源码
赔付
贰
important
弹道
蝗
稻草
国标
擎
契丹
卖淫
侦
德意志
ili
公公
评析
骑着
光鲜
411
来信
凯尔特
248
保有
永安
封杀
封神
VER
海运
OX
橱柜
满地
考过
鳄鱼
商务部
之手
证券交易
一跳
较真
卡罗
SW
MBC
铮
半点
缺水
东欧
Pan
妇联
Good
ien
大都市
IPS
而今
576
导线
滋生
玉林
鲫鱼
bus
入场
短小
鱼雷
无极
苏丹
cast
comp
十块
林中
ender
销毁
教学设
吕布
营救
溜达
协和
625
wm
钰
布里
懵懂
连贯
顿悟
拉力
丁丁
Text
沙子
库尔
荒诞
纣
柔情
发散
硬笔
分队
剧透
柔性
jpg
军舰
复位
文坛
国服
会变
格勒
蒙古人
技工
恪
绝非
集权
斯科
深信
监考
WAV
yd
滞后
Ter
美甲
德勒
操盘
天桥
虚心
赤壁
Gl
转头
多坏
爽快
tar
灵性
涮
想太多
乐福
天价
历练
1915
wind
数以
才艺
食用菌
脑中
Cas
紧要
378
许许
仰卧
动心
摄制
爱玩
徵
绿树
潜入
参差不
围城
王思聪
14.4
稻田
鼓楼
凄凉
should
林寺
殡
修辞
放眼
选民
胡思乱
屠宰
刺绣
黑名
邮寄
二进制
懈
东邻
Tr
输赢
MF
拷
Object
Tech
超值
bon
炸药
不提
语言文字
辩解
绵绵
毡
浮云
直男癌
洗洗
AU
海淀区
CCD
煮沸
先导
↘
墓志
高估
生来
僚
ht
弹奏
吝赐
出海
小鸡
密闭
剩女
涂鸦
战地
孤僻
two
知音
Luc
多伦多
EXO
伺服
加减
内服
灰白
耗材
盟军
深山
书架
闪存
super
文秘
860
募捐
小猪
罗宾
508
阻断
老先
urt
蜒
City
东营
多糖
组委
评议
玩弄
燕窝
偕
攀登
荒唐
哺
剌
怼
夏洛
got
镇静
阻抗
374
喇嘛
怎麼
壮族
式各
谁谁
课余
转机
ㄟ
胡适
幡
樂
共存
Auto
文化名
13.1
立交
遐
酌情
count
千字
吭
蓄水
wikipedia
褚
供暖
谒
家政
网速
红十字会
true
战国时
转转
结业
惊险
一例
12.4
自认
奋力
DOS
经管
阿德
赫尔
巨石
Management
428
加分
抒
飞来
源性
鼻孔
净净
获省
淋巴结
黄石
恩怨
类推
广角
痔
沙特
演说
邢台
民兵
随风
JAVA
第五十三
汪汪
公牛
MTV
段位
反腐
一百万
血红
写意
ign
回乡
哈佛大学
笼统
触犯
心路
继发
养颜
Name
眺
灭菌
柴静
无愧
收款
多远
抵挡
白花
抱团
治学
白居
青旅
初心
请客
vc
相依
动能
Wu
牛头
沥干
农夫
散布
AH
荠
专升
民风
黄龙
绝无
番禺
检讨
不动产
油锅
毛笔
良种
党内
厝
包邮
花心
春雨
廉洁
野鸡
三重
edit
最贵
惊恐
Run
349
捐献
铃木
莫大
KBS
加盐
拓扑
焚烧
YO
天际
口译
搜到
增殖
.36
Ab
div
楼宇
温饱
妖魔
书刊
cell
跳水
仁义
报批
金城
fc
茯苓
唐人
AKB
BU
良知
olo
深切
地税
414
亲历
WCDMA
牌号
博主
core
士气
搏击
脚印
彩绘
算得
四维
抗性
六百
李易峰
游艇
dan
金钟
認
维新
宝鸡
计价
进场
Ling
连年
两段
SAT
岳父
古时
cap
锦州
论据
Get
歇尔
858
蟠
蕴藏
送上
糠
花肉
Socket
墓葬
抗衡
清热解
专车
平复
踞
条码
手提
GPU
货款
霍尔
第五十四
试玩
bc
╥
裸露
瞿
开战
OB
ky
踊跃
自测
仙子
Miss
紧迫
655
Alex
五谷
css
炯
正反
国营
对准
置信
凰
漫天
工大
主轴
ABS
...............
既定
抛出
卡斯
耳目
照镜
韩式
775
薄片
乳酸
Technology
二百三十
办案
满清
AX
细思
科院
宽屏
司空
转世
嵌入
奖牌
唐书
統
正畸
13.5
清清
锐意
义工
李宁
江浙
沧州
619
三七
警官
阻燃
then
直隶
罢工
解剖学
装入
桑拿
镯
漫威
党务
Ctrl
征管
教改
撰稿
opt
教辅
vpn
电子游戏
平生
尼龙
救出
鲜为
赃
紫砂
四十多
代工
why
pon
Back
dc
558
飞利浦
舍利
白莲
树皮
明快
相片
绕过
速写
蒙特
收货
偃
标示
缠绵
嘉定
三百六十
印度人
9.
石油化工
小姨
蟒
遥遥
PF
胆囊
ales
ique
user
电场
Er
Cap
宽大
二百一十
漆黑
作恶
川菜
达尔
ば
金马
玖
GIS
此期
信息网
朝气
误以
拔牙
精制
风控
福尔摩
政治经济学
液态
绝世
重疾
挖出
err
走遍
国资
IB
功勋
讯息
团战
阅兵
发文
两千多
金莲
色色
德甲
鳗
Chem
蝎
烈烈
法门
之忧
大骂
潦
呼和浩特
road
PN
神龙
运维
核弹
522
格格不
Park
办好
鄙夷
give
348
躯体
憨
常德
請
ald
热气
茶园
今属
cut
党风
保加利亚
可变
太和
OU
til
原画
PART
395
528
鹭
鼓掌
猥亵
学籍
觀
edu
上架
剪切
如画
疝
tsu
名列前
粉笔
自体
核对
谚
争斗
MU
可口可乐
备课
MVP
江户
田中
蓄电
传输速
柜员
闭塞
359
睁眼
发泡
吊顶
林肯
摩托罗拉
df
后继
Green
涂装
铭记
发火
water
崽
中超
モ
ハ
集会
石雕
赶来
法医
漂浮
ume
IVE
382
ali
Script
耐久
hong
节俭
ature
向南
天灾
供热
全国人民代表大会
蚌
四分
渤
合格证
白石
小熊
后现代
配对
越多越
505
解调
双打
粕
Pol
杂乱
屡次
城建
文教
黑马
东湖
atter
队列
预知
分发
斯巴达
MY
精液
电位
轻工
外层
耐受
hal
血气
哔哩
处世
高热
泥沙
were
华美
2333
咀
白沙
初见
信教
ALL
群山
oon
博爱
聽
京沪
拨号
日产
亚麻
md
Service
天安门
rat
滨江
息息相
深色
动向
分子生物学
冰山
未有
三张
必修课
之又
城北
偏高
党小组
两极
礴
法西斯
云雾
可选
IX
制程
装载
寻觅
钊
数控机
共同体
起居
七分
趁机
喧嚣
后汉
冷落
连串
屠龙
冰冻
集市
金鱼
攻防
Lv
辛酸
朗读
接送
眼影
依稀
署名
姊
End
欣然
英汉
资企业
绘本
硅谷
ua
407
347
挑起
标语
民进
怜悯
超低
聚乙烯
糜
闭口
SIM
门市
黑褐
Sea
盐城
别太
深藏
Hong
持股
Bal
劝阻
走心
大碗
马鞍山
ImageLoader
倭
天宝
三十四
Now
惨不忍
锻造
.24
香草
▓
紧跟
汹涌
病理学
华润
DXImage
辨认
progid
砰
平地
柏拉
实木
荒漠
通达
中国电信
eal
第五十五
竹子
供需
hall
农副
同城
环卫
锄
疲倦
def
value
相接
药效
刀子
放屁
遢
PAL
空空
上诉
深水
独树一
TN
车床
凉拌
爱玲
放任
元宵
商丘
淮河
dic
亲和
殊不
军政
夜班
其所
江东
sel
铂
和事
晶莹
CON
软体
其實
擦肩
见闻
eas
通州
啧啧
ush
助人
国力
癫
1908
毒药
RL
幻影
黍
紫金
WOW
二环
Mer
LY
Will
cam
胜出
生日礼
面相
瓮
余力
Club
lig
绝招
声响
陀螺
长白山
dn
网路
毛线
国藩
傀儡
冰岛
fil
Bio
POS
探寻
向导
赈
喜怒哀
全全
海淘
城东
失真
票务
老王
预示
update
1906
行销
顶点
805
光度
因缘
浪漫主义
默默无
頭
袒
浸润
Poly
全盘
巴菲
黄海
失忆
出没
相聚
etc
维克
混音
天黑
核查
ョ
实景
粘土
常温
古兰
果蔬
郁郁
鸥
酸菜
谈笑风
亡灵
815
移步
秦岭
昌平
畸
臧
翻转
谋略
墅
本职
出产
未见
轻轨
配比
脱毛
覺
517
439
先河
二郎
拈
bre
翎
气候变
霆
代办
JD
番外
055
亿立
之三
举重
磷脂
中国香港
013
_______________
招来
拆开
空手
向阳
rz
栽植
511
温差
断面
寫
切尔
hor
镇痛
进心
快快
熵
空降
膈
统帅
sim
峦
京津
耐热
布莱
擦拭
磁带
竭诚
嗒
喜歡
sun
两门
台南
期末考
初入
鸡毛
银牌
xin
them
wechat
Real
炎热
rest
混日
秉持
处死
浑然
跑跑
维亚
̶
八千
UA
金针
ski
长春市
第四十八
虱
繁育
362
清秀
雨林
930
捕鱼
左上
新安
递交
aga
苇
星爷
流行病
方剂
江门
泯
迷离
改写
tf
无权
ross
摇摇
信佛
酒庄
迁入
盼望
运载
CRM
童装
粳
阵亡
ゃ
萧条
心烦
推算
Song
真能
里昂
布什
抱负
贪官
祈福
女星
ets
恍
Business
付诸
擢
芮
刑事诉讼
声名
傣族
升温
撼
烽火
天命
庭审
引人注
重温
斛
谟
8.8
牢骚
遗嘱
停机
where
常熟
得住
記
尼古拉
rac
布满
Qua
推倒
葆
一针
莎士
倒车
♂
靳
罗列
Sky
流经
SPA
行不
HY
美协
温控
621
Mod
fire
第五十六
捐助
rec
卖方
签到
水族
低频
冲出
草药
Wh
观摩
预选
奇想
ural
千兆
瘘
777
高桥
CBD
退还
surface
打分
冗
晚清
ACT
timeline
偷拍
降血
abc
题库
羯
宝剑
middle
脚踝
尽全
ᴗ
路易斯
478
小刚
波罗
四千
Team
霉菌
vent
榴莲
法兰西
ppm
甘露
践踏
心存
工笔
斯坦福
四十年
ball
ena
FDD
骰
1909
八道
水洗
Not
after
报案
韦德
集训
睾
清白
ces
通天
854
甜味
ages
chen
荷叶
吐蕃
起动
清扫
哈尔
漕
军中
农耕
肝硬
年仅
下雪
编撰
原汁
掌门
Che
DU
Oracle
aya
直板
ART
996
德行
瘟
柔韧
边防
撞死
1010
PV
证人
会务
华东师范大学
八达
3100
安石
康德
南宁市
充气
致癌
XT
沉睡
闯关
重任
冒充
锢
布袋
原住
刚入
不知情
ram
肛肠
奥林匹克运动
冷血
could
骨灰
台北市
hia
裸体
tz
940
伊丽莎白
百计
舰艇
Twitter
国际交流
百般
火药
挪用
万丈
啄
je
sol
女巫
跷
XML
皮脂
四库
889
求真
第五十七
东芝
師
淑女
曼谷
宜兴
怕死
可疑
014
518
讀
七彩
陶器
ACG
冠状
838
Program
甜点
耳塞
HTTP
罗曼
umb
RR
兴业
裁员
神通
天平
肾小
提早
拴
肩负
苏醒
赶不上
别想
领会
领衔
eri
雪地
氣
room
夜店
兴隆
振荡
青涩
更难
安保
LU
三段
ACE
拍成
二流
15.2
松子
缩放
中医学
吞吐
远景
Pentium
见仁见
enn
CBA
awa
洞口
ony
皈
福州市
嫉
白虎
价格低
kV
行进
梨花
Baby
惊魂
spect
胶带
丝瓜
喜不喜
货架
幺
shtml
Dia
晚间
鞋底
讲义
矿井
错落
翻过
平权
多见
克罗地亚
文采
龛
尔曼
演职
illa
瞥
酸甜
弗拉
措辞
西夏
完完
开篇
联谊会
异形
第六十
近些年
独奏
攸
插头
标价
觉得很
如若
警报
3.
用功
hao
沉沉
Eu
仁者
县市
波形
摘下
全缘
调色
枪击
黄疸
gh
女娲
破案
uz
void
Richard
瞰
Tur
竭尽
范文
迷雾
单手
一提
city
城西
model
dll
order
南门
郭靖
酋
抢购
肆无忌
孺
uv
工商联
程式
无与伦
全明星
司考
이
By
475
提过
爱恋
隧
滋阴
10.6
伤残
Some
acc
泰州
稀奇
终日
桥头
拜金
白羊
左翼
opy
沉思
马车
沅
丹尼
闪闪
携程
临终
Pat
xp
Window
回流
理查德
array
造化
699
木偶
德罗
由衷
领事
胫
太平天国
Night
修筑
痈
奋发
婧
rey
李鸿
酱紫
aris
醉酒
欺人
礼节
阴凉
sz
Ass
yr
南安
广西壮族自治区
部委
漾
跳动
撒上
Pop
乱说
长足
可溶
盂
math
忒
倒地
辄
甲骨文
自干
各不相
想换
增肌
435
伙食
纸上
交货
拉近
馥
刀片
信号处理
mall
蒂斯
国宝
自重
799
无锡市
409
1907
暖暖
sco
无端
609
陕北
音节
特制
恒定
汕
东盟
普世
负离
Quora
掉头
始至
背心
不足道
.........
州立
山头
反反
kw
四角
往外
瀚
gress
年月
osa
sur
留情
亡国
闰
ott
吃零
黑衣
methyl
istic
阻滞
公克
273
缔约
工业部
亿万
4399
受苦
当户
单从
3600
第五十八
三江
柿子
重约
泪点
母女
协力
左派
靓丽
打火
wu
麦迪
芬芳
可忍
恶作剧
大黄
ASP
ulation
香精
疗养
弧形
三百五十
出奇
联欢
新石器
花药
风土
GIF
趁早
Gal
护航
poli
赵国
16.2
自选
外景
迪亚
陷害
绸
lam
dent
超薄
排解
指明
射门
成瘾
汴
豁
地理信息
机要
相干
冷凝
溜溜
户部
ㄕ
官府
双双
韩信
国美
七十年
抗压
五分
铁血
夜夜
混迹
独居
团圆
捕食
二百七十
两步
事记
仨
生二
风尘
影迷
los
唤起
乐山
文选
688
文化大
漪
牙医
日漫
假象
过激
镇定
lish
RGB
重在
十字路
横扫
过热
夏令
cri
program
lab
乐天
饨
追上
乌斯
手心
接通
需不需
格格
羽状
艺考
残余
rag
枝条
白兔
爱恨
薏
高傲
迪奥
合体
一个劲
达尔文
家禽
城镇化
603
海景
蕉
草丛
非所
蜓
复复
以鼻
简而
西雅图
ZZ
西蒙
ISIS
一无是
专营
有理有
sq
榷
卑鄙
灯火
转自
吝啬
ette
ower
恐极
结了
调换
渐变
耶夫
赡养
沙河
送往
锦江
806
商银行
耐火
名作
Ken
庸俗
管委
鞍山
pat
费尔
柬埔寨
后任
栩栩
WI
初创
ASS
雄心
人民公社
史以
水滴
孙女
比比皆
鹑
名副
方程式
best
近十
flu
loser
257
植树
那颗
冲泡
金融业
444
ㄠ
果壳
事半功
粘合
各处
VT
拿手
金鸡
非典
ᄇ
范式
无所事
碰巧
完事
RK
901
789
喃
古董
冲上
顺丰
相提
飞龙
狼狈
VD
正向
霓
考勤
放宽
镰
劳工
莫测
God
国库
旱地
ental
提拔
并论
反恐
外阴
封为
GR
Joe
非金属
政工
三毛
一觉
公理
捶
506
国共
dust
痴情
三八
般若
糗
停顿
耗尽
小兔
Cre
易燃
泡菜
罚球
14.6
718
普林
AK
party
翻脸
撑起
Every
扎根
狠抓
缎
跌宕
胎盘
相克
UX
acid
oxy
韦博
咎
eep
苦涩
十几万
SON
posit
独资
武王
引以为
旗袍
理疗
13.8
歌坛
马列
φ
血战
づ
手电
通胀
舌尖
梗阻
斟酌
風
帮派
纪元
流言
鞭炮
910
运球
286
14.5
化成
避难
合乎
Over
眼睁
豁达
牧羊
棺材
传播学
弹出
產
och
打骂
Fire
博彩
艳丽
无功
神态
题词
张家口
脑血管
ford
萧山
校验
識
守门
路途
click
mate
蜻
悄然
箕
审美观
lit
骥
休眠
滴定
含糊
品行
以备
承德
山南
628
板式
年终
紧贴
可玩
XD
Phys
楼高
House
吴国
605
体态
误认
shu
ability
第五十九
George
饭馆
exo
丧心
除草
辐鳍
big
限时
身手
痛风
猪肝
西邻
侵袭
南湖
形形
松散
季军
意气
高阶
钟表
707
确信
两栖
峰值
885
安吉
元老
蹲下
梅尔
谈吐
Project
不愧
雷诺
防弹
宜居
何其
时髦
重疾险
渡口
keep
红红
蕃
观景
婢
有机化学
13.4
There
cra
875
遇过
牵强
dai
南京大屠杀
停靠
Sin
拍片
春光
下文
拉丁语
燎
relative
‰
针刺
麻花
沉溺
糕点
归国
篮子
轮机
丽水
古琴
504
BM
进退
兴国
dt
低迷
College
呸
合拍
不會
工行
include
心肺
郭沫
568
服务提供
奇奇
福克斯
idae
PSP
AST
徽州
389
救世
博文
督察
ico
疏散
小肠
tex
俱来
Japan
成佛
GMA
金光
疱疹
肝胆
中国农业
举世
朝鲜族
有害物
ず
富养
箱包
广度
Φ
应援
蘑
进制
实效
次序
γ
旌
受聘
扼
周期性
MATLAB
流露出
龙虎
塞进
拔尖
828
990
赢利
香火
捐资
TIMKEN
龙岗
秽
体格
lang
机率
黄埔
果仁
耆
.92
裂纹
521
白带
雉
自娱
长治
MK
活儿
吉安
在实践
右派
挥手
热忱
视镜
纱布
意料之
铀
暴利
曼城
急忙
1904
防尘
SY
功名
陈皮
草泥
孟加拉
杞
379
信息工程
走神
泪盈
色拉
建安
redirect
莱德
流下
耐药
师徒
une
凸起
闷声
恐吓
菌丝
目击
语调
倒卵
Uni
麦芽
ㄏ
北航
18.4
放在心
杂货
权势
近亲
神经元
1333
乳化
懒散
med
大财
疫情
氢氧化
刘翔
ria
尿素
红斑
丝丝
覆盖面
公办
蜂窝
匆忙
纸牌
山丘
怒火
抢夺
沱
表演艺术
暴发
818
进气
坍
电离
晓明
美发
胯
rich
炮儿
新潮
错位
零下
埋葬
Les
Young
巡回演
便携式
桢
車
戒毒
歼灭
普京
快车
长颈
裁剪
行文
膝关
锭
开拓者
夜深
睡衣
文山
实操
登机
ima
Sal
酋长
搞不清
射箭
第四季
石板
湘西
百倍
翩翩
正装
飞过
诗作
σ
PCB
欢笑
跳下
壮志
折旧
uri
大提琴
White
GMP
465
GitHub
always
LR
红叶
诸君
一指
古树
271
一幢
用户数
461
城际
挥霍
easy
接见
巨蟹
nov
备战
排卵
六合
16.4
裆
488
发问
Fan
een
門
第七十
联考
排长
首答
造血
玉皇
737
奖赛
莱茵
心塞
外甥
hou
涨幅
哈密
606
新旧
学徒
气死
747
強
检定
Van
网状
years
八仙
tract
戏剧学院
玫
嫁接
条文
Den
王爷
民心
拍案
利害
茅台
Engineering
白癜
ICE
见习
亚瑟
发传
数一数
检察官
棍子
聊起
鲁斯
20.8
过世
ification
pay
France
迎面
蚜
学位证
克罗
github
凹凸
书桌
血肉
艾尔
神明
Alt
韩文
黄冈
ATE
台湾省
绿洲
807
ying
&#
妒
屋檐
hun
猪蹄
naive
三十一
理应
廊坊
DNS
右翼
一汽
平阳
甲午
OE
Multi
民粹
mann
东至
刑警
勇者
丹东
754
mond
Map
Step
瞳孔
避暑
11.6
砖头
单列
枯萎
公报
炬
类药
阜阳
摩根
拔出
天盖
可多得
excel
支原
莉莉
梯队
stro
组分
斑马
NGC
起重机
兰亭
Drive
楔
租用
灌水
面食
一亿
散射
协奏
香槟
石桥
想方设
野猪
杷
hat
云龙
仿制
裱
梯形
乐府
Why
龙骨
直营
天籁
羚
钼
防震
eyes
深蓝
迪斯
帆船
大麦
退一步
MMC
机缘
cid
修缮
Uber
内燃机
故作
瘟疫
查明
执意
裁定
文风
员外
吁
辨析
Para
病历
水溶
二百五十
空腹
引诱
杂文
2700
火龙
第六十一
落魄
甬
领头
嫔
人厌
天秤
NACHI
娘家
紧身
Bla
熄火
小卖
刷票
社会活动
笑傲
加勒比
腆
抽搐
腹胀
巴特
超群
ELL
Sony
斯诺
蕙
终归
谧
ISA
BBS
宇文
江淮
肇事
kW
脸蛋
纳什
心脑血管
玉兰
EVA
狗屁
丑恶
显赫
亿吨
ific
无虑
15.6
维基
gt
肺结核
大跌
常在
607
推论
曲阜
俑
fici
➕
镐
无成
遮盖
输血
回旋
拐卖
情理
715
Ltd
南斯拉夫
熨
睡得
拉姆
撬
Are
暗暗
几千万
温热
9.80
買
私心
壮烈
ega
扶手
拉肚
杂物
very
光棍
男盆友
呼声
eve
排便
词组
朱德
通气
威慑
征文
斑病
财团
公信
闻乐
衰减
托付
總
跃进
Geo
东华
柱头
越剧
拉链
往日
ツ
MAN
杂技
507
反叛
维特
经纬
拉美
National
oma
忻
贫民
Sina
防潮
蛤蟆
离休
粗细
茱
司马迁
清河
ira
摩天
KT
喷出
15.4
骁
独往
VB
911
阿弥陀
14.3
丹尼尔
YouTube
美容美发
大赏
Standard
確
race
教职员
auto
糊口
哥特
睬
穷养
导热
蛎
1903
流放
聊城
何尝
许昌
喜马拉雅
果期
ati
卵圆
PER
魏国
电教
1.00
同源
超凡
徽章
添花
棋盘
满脑
anda
荆棘
澈
花萼
利己
实况
Rose
星火
麻油
058
hai
崔永
党和
读读
宿主
868
宝山
国货
原声
中外合
配图
por
警务
弗洛伊
尝尝
淘气
开眼
project
谢绝
自欺
土家族
anth
HIV
十一届
涤
稳稳
飞车
直角
防雷
编审
表露
剧作
一闪
男篮
卷轴
吠
iving
无时无
South
名优
大千
姻
宜宾
草稿
鼻咽
头孢
417
生菜
一郎
千篇
隐忍
site
錢
木工
悴
274
抗旱
避孕药
洗浴
セ
挑出
锦上
大拇指
耕作
段话
爬虫
领队
成活
查尔斯
佛罗里达
各族
575
残暴
杰出青年
同姓
.-
烈火
第六十二
国贸
根深蒂
褥
omb
教皇
遗物
gene
做作业
fall
章鱼
工商业
佐藤
缘起
一谈
校准
path
ector
九天
while
0.02
林夕
劳力
短缺
砂锅
真主
三农
两把
Frank
習
cher
张飞
嘴上
韵律
Cloud
705
Ku
阿布
755
顶层
蚌埠
Smart
jj
604
网银
味觉
Wei
缈
Ig
不起眼
丙烯
原告
栾
芭蕾
tis
淞
一九八
异类
橄榄球
双龙
诞辰
冷笑
16.6
785
辐
442
互生
roll
红白
盘古
随从
张三
1902
陈旧
击球
罗湖
邻里
国药
瓦解
ccc
大中华
行尸走
阿波罗
海藻
学研
华文
琼脂
受命
濒
SHI
缭
沿江
ㄌ
聚在
水彩
icle
一斑
修图
止步
lla
席位
玛雅
短袖
可喜
道义
东野
lad
視
494
包皮
弹力
姐弟
Ultra
称霸
ね
tp
泌
温带
豪放
流亡
兴办
深浅
千寻
珍宝
槃
荃
田地
JO
新政
這種
口吻
器乐
工部
闯荡
Entertainment
簪
尚无
红血
政绩
破烂
桓公
镌
物产
said
香格里拉
副厅
彩信
Pu
清高
反攻
第六十三
水陆
除夕
胆汁
危急
安迪
浩瀚
荼
ude
掺杂
约瑟夫
前年
称其
桑德
追忆
奇艺
泷
大姨
照搬
奋进
RU
榭
北约
无赖
节拍
信封
三餐
不调
News
风速
hello
Application
涨停
闹闹
MicroSD
1901
抓捕
三十八
NN
来宾
厘头
单相
卷烟
劫持
剖面
任免
苓
宋元
休养
喳
左下
外语教学
家用电器
EXE
283
废气
缨
park
468
日耳曼
淮海
宝钗
aid
证监
nap
防汛
繁杂
少先队
冗余
Award
MSN
打碎
自创
中国台湾
373
勾心斗
信息处理
皙
修罗
item
缺爱
甲壳
埋藏
失意
头等
bf
FD
孙杨
ras
青铜器
血色
脉搏
形而上
威信
bert
้
探头
present
杨梅
江汉
流过
282
远远不
◡
声波
happy
普普
rie
019
蚕豆
花都
南充
行医
第八十
爽口
ln
敬请
丁克
重工
格力
亘
疏忽
屁颠
509
耶鲁
画报
Space
Kit
电控
密钥
植物学
议事
dec
榆林
拜师
愫
专利权
主产
禽兽
肇庆
穿孔
飘过
群星
分寸
影业
军营
喷洒
chin
射精
1001
订货
嘞
制造厂
纵然
抗美援朝
冠希
交所
个人所得税
令狐冲
基质
887
情深
number
右铭
客流
指环
修真
庄重
jun
装在
小平
ADC
卧龙
湄公
ESS
ona
unit
外置
宋江
齐齐哈尔
江水
文华
node
无良
POP
文学艺术
便当
刺痛
千方
半死
缩影
六小龄
Sup
Long
换热
满目
淡然
海伦
串行
現在
褂
_____
枣庄
Sound
牢记
海峡两岸
根茎
零碎
隐秘
究其
头戴
728
街机
阳春
江宁
越远
滚筒
情不自
Mal
那麼
暴涨
滔滔
之徒
不及格
beat
HL
闾
捕捞
沸点
资费
割据
雨量
雌激
848
垂钓
凯文
處
孝敬
花鸟画
小异
ody
堂堂
force
东吴
孤身
紧致
缩水
收藏家
物美
gn
西安交通
引人入
503
所闻
莫扎
遮挡
886
help
不移
屈辱
倡议
law
Martin
苣
狠心
长效
断路
安息
rou
rio
讼
微粒
香甜
猪八戒
へ
疏导
西风
高举
GDDR
479
bil
bot
填料
眨眼
First
聚氨
输电
走弯
闺密
保险金
箴
耐腐蚀
锅盖
mber
许嵩
分部
rock
极乐
write
跨界
候车
0011
主创
青青
弯弯
神父
魏则
拖欠
争相
卢卡
黑幕
吵闹
版主
凭空
必修
夏侯
水壶
言谈
571
夏洛特
亲民
投奔
沉醉
忙忙
三号
奔走
唾液
SAS
祛斑
泓
布鲁斯
冷冷
645
军分
965
报业
人情味
后置
WEB
鱼龙
无言以
曼彻斯特
OI
应运而
Rhododendron
蜥
习得
Plan
underline
巡洋
雨伞
千千万万
inal
宣讲
467
墙角
心肌梗
揭阳
超乎
降级
蓓
芦苇
突袭
weight
第六十四
悔恨
布拉格
盆景
胡歌
價
椎间
退缩
及待
弥勒
431
远见
fps
寒冬
编造
drive
澡堂
dj
计费
免提
军医
糊弄
力所能
nis
遗漏
普陀
亲临
爱惜
憔
蠡
EMS
單
wood
radi
eli
零星
BMP
隐含
张伟
uel
不言而
靠拢
王氏
继任
所言
棱角
烬
列颠
艺术界
蚓
ational
678
美酒
845
Network
阿联
616
捞起
克里斯蒂
管教
白砂
弈
不厌
中游
ECT
蠕动
维拉
便民
602
ThinkPad
effect
力宏
DSP
7.9
贞观
Au
Flo
庇护
fit
讲求
荣幸
站稳
家卫
化痰
快船
招商银行
相辅
一抹
诽谤
殃
bt
塔尔
展位
耳熟
702
护栏
啰
祚
凯特
嘚
叶酸
Lan
地黄
睢
莘
Hello
公诉
艺谋
little
夜色
三倍
落花
一扫
吖
嘉奖
壁挂
手握
钟楼
技校
ime
UD
灵山
核发
罗辑
ago
287
尔雅
edge
休止
独角
抚顺
IPO
墨迹
pack
iel
夺回
意在
惰性
碎石
XY
柑橘
HU
附图
字帖
暴击
绿叶
莴
发球
Visitor
滔
制导
世袭
席卷
日复
催生
ency
eration
bgs
嚏
Image
钻井
炕
545
浜
mx
毒理
匪夷
資
托盘
918
银魂
995
硬质
Smith
型材
YA
重申
仇人
兰德
NH
刻度
性侵
出乎意
千百年
加压
皮具
香山
示威
硅酸
责备
赵云
贪心
−
变电
格罗
李毅
奖惩
dou
勘测
六安
土司
撇开
much
CFA
PG
八五
滑坡
光合
忍无
塑性
matic
退步
扼杀
1050
十日
米勒
菲利普
恪守
烧饼
卞
悉心
提不起
錯
敌意
708
驻扎
搪
渗出
指指
暖和
第六十五
西晋
Wen
Int
流露
克林顿
家喻户
叁
霓虹
控诉
退税
收起
远洋
NX
李氏
姻缘
其三
引水
愿不愿
南邻
营养学
OEM
四环
Tu
person
七日
样样
乌云
lue
天启
动魄
VIPABC
咨
白族
实属
正弦
將
臃
无话可
汉姆
臭味
常驻
其境
学刊
眯
凉爽
无霜
胆碱
私房
Σ
摊手
Reg
微风
乌拉
祷告
候补
全息
冲浪
贴纸
地壳
女真
帶
zhu
科特
惊慌
内政
波波
夔
监听
佳肴
罗杰
国安
倒置
莱昂
犷
温哥
徒手
大吵
809
十字架
Mad
ㄓ
售货
健壮
满心
藏传
破旧
匠心
残缺
死板
苏菲
连通
矿工
狭长
右转
监护人
增益
爆表
758
踏板
涵养
海归
人道主义
稼
覃
调味品
紫菜
ison
联名
LGBT
15.3
喷水
Who
漱
4200
优待
婕
皎
羲
mus
钴
iki
能手
Heart
床边
不苟
莞
土地革命
稳压
嗪
拿不出
Nu
不怪
648
切切
Col
大怒
龙眼
余生
依依
一盏
iti
组组
噎
濮阳
战列
差错
Des
别离
申明
Market
乐此不
跨年
钥
晃动
武艺
口令
清汤
痧
lean
沦落
Section
忠心
群发
押运
凝血
汪峰
融会
绝妙
波及
华纳
白骨
美妆
Daniel
most
第六十六
915
KU
武陵
1898
穆罕默
鸣人
竭力
不饱
leg
Beat
燕山
贫苦
应激
烧结
XM
木刻
一伙
富民
空地
崎骏
利税
妳
乌拉圭
常青
放养
925
乳汁
zen
rade
周公
笈
难易
紫红
可数
斯里兰卡
南宫
谱写
耳鼻喉
區
适龄
舞弊
VCD
委内瑞拉
凶猛
豪杰
网络管理
明晰
Hand
龙井
民科
咸鱼
Jean
流速
钉子
贵在
elle
屹立
初具
壑
Reading
still
教派
落日
装满
through
畴
郑爽
石柱
主修
虚实
uncredited
收看
参政
映像
沉降
掂
王莽
源远
淼
音调
baseline
熄灯
护法
豆类
Ang
someone
buff
哼哼
庾
陶冶
冷热
罢不
tus
卓著
合规
焦作
惨淡
Card
nba
9.8
佛罗伦萨
简简
arri
士官
太冷
浅色
矶
還有
鄂尔多斯
迷糊
电报
畿
NHK
爆香
王维
622
普勒
IST
cing
476
ě
嗔
531
购票
539
国际金融
襄樊
厚实
爆米
楼顶
旁观
瓶盖
拘泥
周遭
牙周
以赴
eter
路基
渡边
服气
伊藤
vr
市容
集约
昱
求证
统考
王八
Box
磁力
琉
顺理成
倾倒
邺
果品
傳
块状
詞
Marc
安眠
2048
漂移
Bon
脱衣
恣
DH
挑逗
棕榈
漱口
链路
能耐
探望
文静
竹笋
闹事
ility
行之有
拉扯
双肩
Point
平仄
止咳
Spring
兴衰
准字
Men
std
风声
〃
微电子
東
井冈山
军医大学
台灯
ǒ
589
峙
質
NTN
const
倍增
隘
缔
郴州
总指挥
芭蕾舞
溶洞
pha
春运
Rh
sum
布莱克
净资产
六角
桃李
Awards
奇遇
电瓶
连衣
朝夕
865
代步
降噪
陆陆
雅虎
龙女
spirit
迦牟尼
砷
平均分
临安
外币
研习
损益
通行证
断开
急躁
谑
鲜卑
珞
联谊
大中专
事态
天候
茉莉
斓
ized
刑事案
递减
temp
阔叶
春树
远高
伸长
秩
ㄙ
精锐
撂
伊斯
土建
中规中
隐形眼
延边
kiss
主动脉
自弃
牵制
喝多
RN
绵延
North
706
唆
曳
防风
帆布
better
惊吓
黄梅
非诚
赤峰
火候
肚皮
kit
据传
麼
源氏
Edit
国家专利
dian
享乐
罗兰
无悔
吝
育才
垛
˶
确确
circ
based
支那
归根
存栏
藓
弋
ㄤ
头禅
补考
失传
喷气
ACM
管弦乐
YP
宥
658
轻巧
果肉
差阳
ょ
local
imi
黄酮
庄镇
756
668
起重
Sur
结伴
宪政
吸脂
门锁
矾
清远
海啸
Post
缺席
长毛
走访
自转
八分
Ray
龙族
used
毒害
农贸
中年男
卫国
二十万
Two
ova
612
句型
照常
鼓动
轻而易
岷
12.7
梦游
私教
Version
冤家
之流
哈登
凤姐
things
螳螂
醒过
door
м
hk
产销
髻
赛马
挞
摄影家
鬼怪
除湿
KEY
退换
ネ
威尔士
施用
559
师弟
12.6
波尔多
果真
长虹
承运
班组
year
连结
惠民
Chris
孩纸
afafb
临场
符合条件
遵照
声学
移位
uf
787
整流
评奖
unch
宸
Mel
屋面
打闹
委任
Bob
Player
艮
fact
加湿
兢兢业
联结
普利
伯恩
吡
丰硕
徒劳
心急
simple
飞起
cin
哭笑
阿姆斯特
工农业
八宝
闭幕
Dec
586
team
苦心
ㄩ
千百
oro
兵役
阴虚
南沙
精算
does
18.5
啶
hl
桌游
ava
鸡尾酒
anna
ept
JA
艾米
纵深
登台
奇才
发指
背靠
重置
摆摊
上饶
地方税
汇款
刑部
临江
游刃
蜚
枚举
ono
冬至
嗟
Boss
和蔼
恿
anti
刀剑
行军
逆流
战功
血泪
商务印书
巴克
珠三
茴香
堂皇
闭关
荒凉
973
门禁
俸
阴极
bp
肱
荡漾
免疫学
ION
662
瑞安
临死
参选
1066
行善
霍华
因其
算术
恩格
老挝
雪芹
明史
适不
俐
米亚
群落
奥尼
稀里
AQ
Process
bla
霍夫
师团
string
挚友
山泉
乌托
独孤
腐朽
胸腔
北邻
威武
袄
辅佐
造物
Κ
诰
omo
装订
霸占
八岁
悯
预想
南亚
TMD
灰暗
轶
rist
抖动
江泽
放火
创世
着陆
MIDI
矗
勇猛
kN
诺曼
̣
桧
武学
铁板
時間
遮阳
CAM
丨
自助餐
拼写
hon
轻快
贪图
仿古
麒
鲲
York
清泉
nz
胄
邊
从心
政治经济
uring
稷
997
拉票
补刀
甲烷
侠客
鲍鱼
mean
凯旋
任由
艾玛
Tan
inger
铉
烟雨
左旋
柚子
宝塔
杵
地瓜
桂圆
AJ
OPPO
削减
ァ
奇石
躲过
抓住机
mc
渥
连夜
KOYO
电算
CNN
微生物学
stance
奇侠
龙华
垫底
嗦
science
tg
自诩
第六十九
红木
政教
blabla
灌篮
划入
else
毒蛇
交割
jia
iana
诃
adc
Festival
赏心悦
脏器
华南理工
驰骋
0.03
三十万
潞
得不偿
爆竹
不惊
second
背锅
埋没
擂台
腹膜
mis
葵花
发证
hz
family
青石
报班
23.6
甲等
DY
导火
导引
螺杆
阑
婆媳
Passage
GTX
拉拢
突如其
Arm
金矿
倒不如
万众
爆笑
474
董卓
民间艺术
┴
dor
Pla
疫病
镇守
卡顿
保利
鸡胸
598
莒
石狮
胖胖
凌云
鹫
魇
连绵
民大会
法兰克福
集锦
enny
感覺
arn
通缉
term
薛之谦
衢州
异步
北齐
ito
革命烈
度日
.59
NTSC
胡锦
淫秽
场均
程控
人云亦
у
社交圈
水仙
evi
4800
Watch
直系
盈盈
中华全国
三十余
怨气
勒布
丹青
迎宾
北京电影学院
河床
独秀
哈特
一樣
弦乐
睁开眼
护发
没太大
抽空
039
Under
安倍
爆款
709
婉转
滑行
送入
陈氏
筵
不累
唯物
魔界
欧阳修
Gay
RMVB
粘稠
满月
国泰
弯腰
德曼
国歌
倒计时
090
1860
流离
1895
公投
巷子
nal
牵连
弛
Audio
暗夜
│
三尺
试客
过氧化
观止
袁绍
Material
俯视
聊斋
呆呆
近三
淮北
倚天
转接
戮
警察局
Arc
oni
20.6
Galaxy
Digital
黄连
hir
Talk
比丘
txt
手工业
Way
烈日
血汗
BGM
摩登
NF
卧铺
井上
ಠ
千叶
656
一棵树
青光
互感
Wall
龙湾
酸爽
集邮
寒风
级数
马哈
西林
化脓
Pass
宗族
023
MIT
不复
菱形
霸权
灵光
flo
Hill
rack
保险费
邵阳
Pen
无暇
迪斯尼
洪荒
Ana
纲上
狗屎
空旷
一丁点
模联
后缀
凯撒
深奥
快活
demo
导体
全国人大
541
进京
替身
879
扫除
轮换
一技之
超导
卖不出
青鸟
鲜奶
收听
乘务
普鲁士
chem
rant
强盛
防抖
擂
啮
气垫
星期天
788
炎黄
隋朝
25.6
Die
双击
Fox
立功
屏风
濠
益阳
风琴
info
衣冠
农科
LK
855
库克
永嘉
豆沙
芦笋
婷婷
缝纫
拓跋
自达
EW
侧脉
471
红衣
致谢
末尾
炸鸡
Rap
湮
苋
仰慕
传热
举证
谦逊
Call
蚂
妩媚
聲
万寿
冬日
思辨
主客场
巾帼
organ
碳化
体脂
丹阳
皇族
walk
麾
瓶装
烟酒
克洛
chu
riv
鳅
敲打
衢
气缸
.264
Eric
Jan
二氧化
磁铁
叟
玉树
甾
029
不治
冲绳
FU
粘液
Rob
宣誓
八达岭
shell
抽查
倍受
开胃
追回
直击
克雷
风电
脲
蛰
天竺
kk
馈赠
透光
556
亲笔
rot
推车
Computer
不疑
平顶山
wanna
心慌
漏斗
夙
gui
临海
如花
动乱
這些
牙科
反智
Never
LF
蓄积
544
lk
摇晃
周瑜
封口
40000
Thomas
敬老
碍于
15.1
邓丽
干洗
启超
公墓
玉龙
eau
绿绿
准妈
惨遭
462
练琴
自足
尖头
理取
夜总
鲜嫩
群雄
饷
梯度
总支
tell
浔
PET
轮椅
宣战
广受
导数
织田
板载
aki
持之以
静物
心平气
传神
cry
sex
隔膜
mt
麦田
冰凉
偎
专修
毅然决
滞留
取缔
清脆
枪管
TXT
松树
机芯
互惠
ワ
飒
search
自言自
牧草
15.5
满嘴
犀牛
yun
13.6
见义勇为
抢断
665
▔
Sci
芭比
anc
四驱
SMS
切合
KS
纸箱
基尼
厢情
耙
mission
eur
ography
狡猾
琉球
made
睁开
韦伯
忿
595
身临
淬火
剪裁
hel
莱特
焕然
萨满
焦躁
褒贬
阑尾
貌美
燕京
残存
itt
0.15
祥和
羧
Think
薄薄
判别
益匪
质量保证
预付
vor
折合
有机肥
黄鹤
第六十七
错综
Log
超额
刘秀
Center
045
蹦出
process
增减
一九四
蜥蜴
泼水
自暴
踪迹
天窗
双床
真事
防锈
辜
异乡
gre
艾斯
945
開始
格律
推卸
脑膜
协办
萨摩
乒
第九十
施暴
joy
痂
凝视
lite
崴
TAT
飞奔
化纤
搜查
itz
选课
请示
雷神
巴拿马
圣殿
软软
慌张
權
义气
龋
吓唬
口渴
腓
硅藻
551
theatrical
運
费城
寐
辍
南航
海宁
band
鲁国
≠
开复
纸盒
唐纳
585
fd
YOU
吵吵
数十万
忠义
残渣
艾滋
標
阖
UPS
朱雀
落落
缇
投递
败坏
屈指
体弱
black
潮汐
收容
529
疱
深沟
颧
lash
男女老
第七十三
四十四
蹋
嘈杂
即用
579
余部
帕克
防滑
触手
双休
lian
ふ
Philip
决断
艺兴
征用
毫安
汕头市
之恩
刚买
减震
Color
肋骨
丈母
瑶族
精神分析
Kong
尼奥
轶事
miss
营口
库容
耶律
风湿性
aba
险恶
END
电热水
副司令
729
勤俭
沉闷
526
ester
长篇大
王羲
芳草
独唱
cks
沉香
芋头
裏
半句
汹
fuck
刀切
局局
团伙
寄主
咕噜
灌注
栓塞
模组
IU
双臂
east
市井
数百万
↙
685
LOVE
尘土
万恶
detail
鸡皮
9999
百岁
昏暗
古玩
逵
沉寂
捂着
优步
钻孔
alpha
安德鲁
鬼吹
25.8
神功
勤工
藤原
威严
喧
桔梗
move
练功
ㄉ
斯蒂芬
随波逐
饥渴
仓促
异步电
君臣
日新月
ACK
显现出
半透明
英国伦敦
醐
835
From
亲测
狂妄
卧床
依恋
第七十四
17.2
767
GTA
線
字里行
Level
榴
盈亏
叽
克拉克
follow
预习
之计
染发
嘀
诡计
资治通
铰
空运
YU
足不出
领带
辣鸡
ela
烘托
獨
020
遗弃
放荡
杏花
988
缩减
刍
xxxx
盅
万圣
出人意
识破
Water
顺义
ried
908
迂回
明暗
ination
牵涉
满载
多姿
佐助
瞬时
661
荞麦
三轮车
辞书
年终奖
造作
摩洛哥
油管
戴维
民政厅
零散
Ծ
Language
净利润
意料
嫁妆
控告
课标
命理
驾驶证
严寒
adv
触觉
岩浆
莉亚
捺
哗
录影
中国联通
Bug
uke
归档
JT
愕
馬
四合院
频谱
噻
绝育
寥
工装
Online
测控
韶关
裨
镭
唧唧
赎回
绝伦
核磁
城隍
碑林
hm
voice
hang
敝
獒
溺爱
灌装
穷困
制热
东岸
22.8
KD
晶晶
独著
ify
夏普
国足
KHz
泰坦
谐波
ソ
歙
老鹰
妈祖
终老
Germany
枪械
iko
十堰
触电
̷
冠名
排尿
ZE
蛟
反应堆
oco
酣
sorry
法国巴黎
浮游
结膜
小虎
特警
永定
芍
next
dle
挑拨
煨
案发
Great
贲
洲际
光明日报
弗兰克
骗取
XXXX
蚕桑
原唱
牛油
哈萨克斯坦
百四十六
Taylor
罔
弗兰
飞轮
戦
工矿
马屁
object
老君
竖起
必经之
红褐
͡
周礼
两半
pose
渡河
aster
梆
574
全株
祖辈
听途
PhD
阿尔卑斯
懋
彩电
泰迪
撤回
覆去
蒲公英
629
抓获
鼬
做主
剖腹
世贸
取其
cial
上爬
奘
吴越
事诉讼
酸酸
躯干
Pic
哗众
运筹
江陵
花八
Xiao
高性价
串串
承租
Source
722
rick
阅卷
兰芳
ube
vic
绣花
增补
足足
拐弯
皮尔
oppo
周旋
弄清
嘉年华
彼时
享有盛
乌尔
不决
理清
full
游荡
果皮
怒气
尘世
許
之所
奔赴
天呐
Games
横幅
1394
Tre
垠
执笔
豪情
耳聋
hd
城郊
twitter
匝
高耸
丰台
pur
腰痛
倾注
兽药
Mg
sec
鼓浪
热议
斯拉夫
炎帝
徐志
xiao
脱硫
高危
虫草
汇合
戈壁
磨砂
伏羲
何苦
辽阳
延展
生津
Nexus
ARA
Amazon
Conference
公交站
匐
‸
四十三
焦急
尽职
FBI
6300
检测仪
隔断
落脚
各有所
野马
贝拉
赶回
因地制
dx
吸食
冰激
纠纷案
frame
歪曲
利比亚
Kim
王母
敲击
gle
安葬
嘴炮
滤过
enter
Xu
819
始发
TION
受阻
Yan
close
炼成
ACCA
布政
平反
普斯
Radio
驮
养鸡
aur
igh
生灵
苹
大把
散散
刺猬
美国纽约
滦
美利坚
系统分析
畅游
守备
員
环状
TCL
中央委员
great
血淋
燮
town
暨南
踝
吃瓜
酸辣
pps
供不应
触碰
Steam
脍炙
获益
JPG
达摩
mel
carry
芈
调频
猪脚
蔺
茶艺
波纹
通勤
沃尔沃
积雪
借阅
1896
1899
托尼
农工
vivo
开挂
淡泊
jy
鲜红
story
術
不胖
磺酸
废旧
Rain
757
绚烂
左转
香港中文
温润
苦练
绿水
祛除
times
弹跳
冲冲
登高
初试
灰褐
购车
精诚
溶血
六千
紧缩
央企
海浪
活活
划线
瘪
戰
配资
社会保障部
ault
Bir
苏南
耽
瞌睡
报告文学
相容
习以
Syn
不稳
牡丹江
IK
阻拦
三秒
22.6
几周
斯德哥尔摩
成荫
漂白
有目共
ctrl
吊销
胆怯
危重
砧
講
Dark
磨砺
朱棣
8.9
中下游
topic
空余
手工艺
蚕丝
帷幕
异域
审稿
密密
etting
16.7
蜀山
2.00
曙
胶粘
決
蚩尤
安溪
炮火
Manager
护送
珍妮
扣分
ife
祛风
解构
慵
逾越
随之而
康乐
父女
预应
环游
加收
持枪
诘
四十七
奋勇
導
厨具
吴江
朵朵
圣贤
衙门
TRA
公职
胶质
镀金
瘦弱
巴比伦
FDA
because
暗淡
冥冥
method
威斯
秋雨
红卫
徕
浦东新区
招惹
really
則
AlphaGo
works
713
紧绷
圖
肿大
滑冰
ISS
盘旋
螯
黑芝麻
京华
滨州
验光
919
谓语
误诊
aria
香辣
Land
907
rv
華
口口声
wang
斯洛伐克
ified
伊犁
择业
祖传
♪
纲领
Ol
文娱
哈工
脱胎
榛
扼要
Hard
United
批斗
偏移
结盟
加利福尼亚州
蘖
铜陵
情欲
郑和
百分之九十
幼小
杀敌
威望
娓娓
ika
梦寐
23.8
剑桥大学
扫码
骚年
Road
闽东
rush
粘结
马赫
宋史
EDGE
熔断
水银
鸢
畅所欲
笛子
酒杯
负罪
炫富
汛
堪比
百川
司职
社会科学院
民商
邕
727
jian
栀子
光洁
uid
味甘
优选
呼喊
警备
单核
第七十一
薰衣
提纲
Temp
百草
否决
政事
吩
紧固
嗷
Athlon
Law
Association
机架
座标
杨永信
..........
ㄅ
哑巴
半斤
藻类
money
骨肉
股骨
迎春
茂名
除皱
60000
酣畅
Magic
肉桂
存取
lick
晌
Mary
尔盖
歇斯底
歆
司马懿
ider
research
fast
破除
名誉会
漓
邓超
游侠
孔明
近百
伍德
恭维
暗自
SuperMulti
遠
凶残
豪迈
Xbox
义愤填
方丈
法务
承重
引战
rmb
CAT
囱
imate
bold
娼
副组
XL
涨跌
面糊
Little
萬
☺
翊
黄蜂
谪
大连理工
曼哈顿
洋芋
委派
張
富强
五十多
板桥
之女
错失
掌柜
武夷山
ATION
清闲
episode
斗牛
李自成
朝伟
木讷
控球
耐寒
献出
黄蓉
Like
恩施
雷雨
ological
慈溪
赖以
五六十
multi
肥厚
623
安德烈
Hot
副驾驶
After
觉察
怨言
酐
鞅
0100
й
⃣
稀罕
紧靠
lc
ille
浅入
emb
案情
ㄑ
震慑
日内瓦
电讯
坳
百六十
孝感
hui
build
樽
发人深
关火
余姚
Jin
14001
绩点
断章取
砥
骈
第七十七
ATP
完颜
止渴
oshi
呼啸
逆变
三十七
童心
羿
target
裁缝
Def
奥斯曼
vari
打滚
副省
bio
兴安岭
谌
fort
别姬
泠
喀什
晕车
一顾
党史
mobile
QU
掳
凯恩斯
振作
松柏
嗲
许愿
肯尼迪
equen
枢密
不活
练习曲
耐压
ktv
渡江
侗
double
梅州
仁爱
urse
波折
EQ
AGE
叭
抠门
651
侍卫
support
天经地
volution
民事行
打猎
伪劣
涸
馈
叶轮
秦朝
提督
͟
筷
朝圣
侍中
养鱼
仁慈
锵
.000
导图
1020
梧州
库房
闵行
索菲
附赠
绶
Carl
QS
汽水
当之无
check
科属
一心一
信噪
接听
嗷嗷
欧亚
扁桃体
鲁班
846
胶体
鸟巢
昨夜
尚存
榄
骡
杯酒
栅栏
iso
二醇
宫腔
窗台
anger
典藏
begin
槟榔
642
AMA
actor
NSK
阻击
急功
Four
民主主义
闭门
etic
ʔ
578
斤斤
横贯
IEC
RB
俗语
HF
大减
申办
邨
三百多
第七十九
亚特兰大
虐狗
阈值
扫荡
OUT
薪阶
隼
培植
hip
溥
扣篮
尽责
白俄罗斯
grad
冷汗
李嘉诚
YC
谐振
泰坦尼克
Hall
廣
曹丕
德川
證
九宫
心裂肺
惶
摆渡
scape
HG
不复存
四十一
一成不
631
離
646
JC
拼死
ㄚ
山麓
dam
已經
552
碰碰
DDRII
瘸
587
carb
͈
apa
大增
化瘀
Steve
abel
Lam
松软
EO
布衣
jin
隐匿
供试
sys
Information
asa
娇小
永无
14000
Grand
四百五十
嗖
玑
snh
检举
十字军
涣
ZL
自由职业
Australia
桀
庄稼
stop
捣乱
粤菜
闭路
found
嫦娥
静坐
逼人
鼎鼎
陶渊
洱
822
霍金
薨
爵士乐
DotA
sound
冰河
举足
burg
898
language
低血糖
烊
拔萃
慕名
巴洛克
垂体
四十九
取而代
归功
找茬
select
受孕
夠
新疆维吾尔
蜜月
致歉
陶艺
晁
静安
箐
芩
猜猜
磺
爽肤
专政
韭
716
LTE
639
清静
糖醋
many
自保
志在
飞猛
藜
腭
蒙蒙
1897
韩非
before
659
四五十
赫赫
黜
眺望
急切
外延
营收
临汾
ISSN
URL
美男
警车
国民革命军
咲
峥
西双版纳
涂改
势利
工贸
炼油
诸神
永和
兢
公私
霏
外经贸
收买
清蒸
唯心主义
巴哈
楚王
Mont
三四十
率达
kan
屁孩
WO
小包
抚慰
tian
漢
甲亢
渺茫
result
韩庚
弱弱
槌
胶东
名古屋
圆筒
Gold
志玲
flag
javascript
959
因特网
乳糖
虔
有心人
边远
阿拉斯加
霁
MMS
something
酷炫
Mode
夏秋
dol
金鹰
象形
5200
脚尖
same
Brown
然後
隆胸
马尔代夫
透镜
958
泛泛
领航
解冻
肺腑
送回
motion
力矩
剥皮
ello
苏黎世
雷克萨
茫
拆装
首屈
修仙
͞
宣统
朗朗
切磋
COS
羊绒
rim
豁然开
无动于
螟
弟兄
聚酯
lio
决胜
患失
骊
荣华
仙人掌
良药
浏阳
彦宏
英国皇家
GUI
赤裸
劳作
巴勒斯坦
宜春
社稷
dog
一剑
文庙
诨
桌椅
灯饰
Hip
條
ending
递归
荆门
铆
宿迁
節
揭发
颇受
骶
限速
嗜血
挥之
革质
FTP
联合国教科文组织
Production
挛
民乐
intel
丕
色狼
空袭
爱丁堡
jing
Come
咽下
威风
嗝
阴险
亏本
埃斯
采自
师专
关押
容错
淬
丹参
齐放
食肉
圆弧
丙酮
糖浆
ㄍ
卻
辕
岫
哧
啤
缙
ご
湫
昙
⁎
觞
棣
ほ
巽
達
洙
珈
碌
觑
媽
¬
鲷
費
ɡ
調
び
ь
恙
惕
铨
捋
冽
≡
斡
澧
拭
筏
爲
哏
報
祇
試
驗
垄
眨
卉
柘
忡
瘴
谔
選
铢
ㄔ
璜
衮
苻
堀
む
逍
跖
捎
ʕ
啡
ザ
偈
鬟
濮
я
竺
滿
驭
蚪
蛆
態
ㄊ
罡
烽
攘
谙
鳕
僖
藿
⸝
濂
荞

璃
訇
輕
☞
郢
溧
ピ
畫
嶂
係
蠕
鼾
吮
嚓
舀
軍
臊
堑
栎
誰
钒
俚
馁
狩
腈
俪
锉
蹿
ゴ
堇
連
琰
雹
兒
蓼
다
栉
晗
垃
θ
獗
阆
評
搔
彧
祉
親
滓
宕
Δ
蝠
願
嬴
ㄇ
邳
佯
瘁
奂
咻
灬
钡
務
糅
ポ
篓
醺
砺
疽
計
畦
缥
牠
狙
議
沭
漉
佥
扈
洮
翩
λ
玥
荪
號
÷
稱
鬃
牍
聯
級
馏
骛
煦
啉
나
萸
眈
晔
ㄜ
準
辘
萦
氦
拯
獭
汆
唬
俟
抡
蜍
蔻
睽
아
妲
発
啧
侮
翳
佤
ぎ
ヴ
ぶ
躇
窿
锺
げ
朦
胱
า
焘
赅
가
δ
ぐ
苄
攥
気
炔
ㄛ
舷
지
锆
據
轉
阡
镉
ヾ
飚
阪
幫
ㄡ
猷
髯
胧
п
ヒ
囿
優
杳
̤
骞
谗
珉
躏
舶
牒
絕
洵
終
亟
骅
參
焗
⁍
迤
恻
ゲ
極
谯
掣
ρ
嵇
眾
蕲
淄
桅
腦
約
柬
ㄈ
祎
紅
萘
際
疟
谆
г
挎
裝
б
衩
蹊
幔
孑
芾
∞
ㄝ
醫
鲑
铛
怔
靛
˵
觐
黨
桡
泮
琏
垭
撷
湄
铐
霭
嘧
磋
吋
邈
換
饯
屹
岙
碣
ಡ
晤
颦
汐
颛
蛭
沢
鸪
隨
劇
淅
砭
怆
郜
斟
衅
辦
湍
拇
粲
檄
佃
缢
冼
菅

溟
谤
細
钜
饬
ゝ
炅
缄
어
啾
劾
琮
黒
虬
燧
鹜
琶
镗
掇
舫
咿
蜇
虢
渎
镂
≈
伫
粼
羔
汰
❛
⌒
潢
麸
⃙
ก
琨
箩
芊
น
倔
♥
✿
荻
陲
는
ы
祷
設
夢
殺
畢
楣
揖
痨
剛
畈
噔
镕
簡
霎
摞
烁
疵
┄
灏
規
鹄
創
爭
坷
峒
枋
사
姣
適
遒
銮
皑
喹
續
嬷
缰
羸
呋
槛
脘
傣
诂
澹
歡
補
隊
聿
戀
瓒
ㄞ
膑
顯
鲛
祜
璟
腩
苜
踵
ペ
桉
鄢
ч
偌
昀
搽
々
跺
菖
婵
瓤
灣
斷
屬
廪
钤
薹
蜃
呎
寶
楽
枞
媳
課
锲
茭
叱
∕
鄱
┃
蓿
瑄
颉
̛
維
蓑
痉
組
罄
เ
ゞ
熱
昶
郯
逻
˂
旻
帷
♀
炝
瑙
懑
腴
诩
锑
˃
專
하
榫
撅
崧
绀
儋
眦
禺
ຶ
僅
姝
赊
濯
豇
鹳
佞
霰
鹃
團
備
稔
臾
磬
卅
ا
舉
唰
潸
痫
祗
锏
膻
傥
歲
钺
抿
觎
怖
膘
恽
ゅ
黝
钎
澍
馗
蟀
呲
郦
興
哌
萜
☼
談
柒
焱
環
蛳
謂
仞
戶
ㄗ
崮
ο
琥
弁
顼
อ
珩
飨
濡
跤
ι
乛
跎
噌
殁
臉
翦
荟
嬅
珅
復
溏
雎
ォ
玟
∑
傷
恸
娣
橇
饴
珪
绡
砒
ร
異
榔
領
苕
塬
稃
壅
練
畲
埂
纥
楫
べ
飯
遑
蚤
癜
臺
疃
偻
碁
诿
绦
養
墉
熘
稹
鹘
蔷
聞
谀
‿
耦
遽
亞
埭
Ő
鲟
攫
薅
藝
噫
钏
菟
镛
疥
고
孛
潴
湟
捍
俎
疡
骠
惴
讫
阕
༎
ν
ö
叵
遊
嶙
惚
蔫
疳
氽
葭
売
蒡
龈
猩
谲
峋
氐
剐
梏
鏖
ə
獐
颢
飛
苴
그
柠
啜
桎
悌
忱
謝
矽
ี
盹
籼
勢
峤
椽
ざ
惡
珏
◕
锹
揆
槎
頫
姫
爾
僭
铳
呷
拄
↗
蹇
에
刎
筆
菩
惇
樓
ฺ
钯
伝
垩
娑
蚱
骐
리
喏
͒
荏
獠
С
镊
嚴
淖
τ
ぼ
忤
饽
芫
菀
殒
岘
Ф
蚧
層
爰
ㄆ
劭
่
狀
莪
浒
妤
도
鼹
茉
柩
蠹
窠
迂
実
嗽
沌
咣
啖
楸
绎
苒
颏
础
繇
蹑
順
濛
내
窒
垅
尕
純
耘
護
琬
陟
猗
釋
儆
钿
舂
骧
讧
圻
椁
稗
纰
ä
誤
蹴
郅
炀
昴
製
佗
萄
鲢
歷
瞑
負
瘠
陳
慑
碴
馒
溉
奄
帚
惰
簸
鸳
瑚
缮
譬
膊
惺
骋
兖
吒
赡
嘈
槿
圾
珑
嗡
喋
澎
屉
蜘
阈
翡
忏
袂
纨
圳
枸
铿
侈
暄
蝴
籁
讪
绚
聆
迩
鱿
槟
髦
嵘
癞
耒
辗
茴
缤
喱
浏
蔼
鲫
莅
徇
怦
哮
氓
璨
鹦
轲
郴
僳
骜
姗
乓
湃
況
討
扪
亳
赂
踊
娩
檬
吆
毂
谄
暹
翱
慷
豺
猾
鸯
尬
戲
茯
亵
晰
睐
呤
蟆
葩
袅
骼
甥
榈
琵
诽
脍
熠
袱
娆
栀
璀
噩
渲
螳
牺
啬
苡
荥
稣
猥
螂
幄
栩
葫
噼
匆
蝙
橄
悚
咄
茁
笆
饕
徊
轭
芎
谩
傈
莠
響
龌
惫
窈
狞
郸
佼
潺
娲
蹶
肪
雖
纫
憧
崭
咫
葺
蛔
蜈
檗
袤
鸵
嫦
痪
咤
泱
驸
镳
搐
挝
隍
迢
蚩
猬
狈
罂
傀
赁
啕
髅
楂
淆
憬
婪
岌
濟
帼
疙
遨
擇
咙
瘩
妩
胛
旖
蚣
篝
疸
龊
嘌
鹉
娠
纭
旎
呻
蜊
嵋
泞
窕
餮
忑
逅
蜴
狰
徉
饪
绔
儡
娓
跚
岖
瞌
徜
蹒
孱
郓
髌
皴
糍
欸
跛
犒
砝
疖
徳
踮
蝼
氩
氙
趸
灞
哐
邝
ユ
囟
桁
邛
髂
煅
沔
蹩
牦
蟋
柞
赭
郫
砼
嵊
肄
觊
谶
瞟
跗
鹧
邬
ヘ
ホ
麋
玷
讴
ヤ
蹉
郧
漯
踌
鞑
鞣
枳
撵
蹂
瞭
颞
孪
傩
荸
搀
鄞
唢
蓦
藐
醴
剽
蝌
甭
哽
ベ
ギ
涿
蚯
钣
佘
蜷
珐
匍
ケ
瘢
腼
罹
ボ
俾
̈
醍
滁
缜
飓
摁
崂
迸
遴
涪
婺
鹌
涓
鲶
弑
枇
蒴
扦
碉
胭
瞠
髋
酗
麝
荨
菏
馄
惆
蜿
诙
猖
惦
瘙
忐
摒
拮
侏
痤
酝
懊
肮
咆
跻
骷
阉
蚝
猕
侥
彷
ビ
邂
噱
诟
ウ
跆
咔
踹
痊
デ
エ
サ
黯
ミ
粽
螃
オ
抨
褪
蟑
邯
豌
キ
拎
揪
泸
嗅
陨
潍
倘
剁
徘
呃
煽
胳
孵
迄
妊
μ
怂
莆
婊
趴
匈
暧
椭
撸
屌
咱
哎
尴
°¡
¢
£
¤
¦
¨
©
ª
«
²
³
´
µ
¶
¹
º
¼
½
¾
¿
ß
æ
ð
ø
þ
đ
ħ
ı
ł
ŋ
œ
ƒ
ɐ
ɑ
ɒ
ɔ
ɕ
ɛ
ɣ
ɨ
ɪ
ɫ
ɬ
ɯ
ɲ
ɴ
ɹ
ɾ
ʀ
ʁ
ʂ
ʃ
ʉ
ʊ
ʋ
ʌ
ʎ
ʐ
ʑ
ʒ
ʰ
ʲ
ʳ
ʷ
ʸ
ʻ
ʼ
ʾ
ʿ
ˈ
ː
ˡ
ˢ
ˣ
ˤ
ζ
η
κ
ξ
ς
υ
χ
ψ
ж
ф
х
ц
ш
щ
ъ
э
ю
ђ
є
і
ј
љ
њ
ћ
ӏ
ա
բ
գ
դ
ե
թ
ի
լ
կ
հ
մ
յ
ն
ո
պ
ս
վ
տ
ր
ւ
ք
־
א
ב
ג
ד
ה
ו
ז
ח
ט
י
ך
כ
ל
ם
מ
ן
נ
ס
ע
ף
פ
ץ
צ
ק
ר
ש
ת
،
ء
ب
ة
ت
ث
ج
ح
خ
د
ذ
ر
ز
س
ش
ص
ض
ط
ظ
ع
غ
ـ
ف
ق
ك
ل
م
ن
ه
و
ى
ي
ٹ
پ
چ
ک
گ
ں
ھ
ہ
ی
ے
अ
आ
उ
ए
क
ख
ग
च
ज
ट
ड
ण
त
थ
द
ध
न
प
ब
भ
म
य
र
ल
व
श
ष
स
ह
ा
ि
ी
ो
।
॥
ং
অ
আ
ই
উ
এ
ও
ক
খ
গ
চ
ছ
জ
ট
ড
ণ
ত
থ
দ
ধ
ন
প
ব
ভ
ম
য
র
ল
শ
ষ
স
হ
া
ি
ী
ে
க
ச
ட
த
ந
ன
ப
ம
ய
ர
ல
ள
வ
ா
ி
ு
ே
ை
ನ
ರ
ಾ
ක
ය
ර
ල
ව
ා
ต
ท
พ
ม
ย
ล
ว
ส
་
།
ག
ང
ད
ན
པ
བ
མ
འ
ར
ལ
ས
မ
ა
ბ
გ
დ
ე
ვ
თ
ი
კ
ლ
მ
ნ
ო
რ
ს
ტ
უ
ᄀ
ᄂ
ᄃ
ᄅ
ᄆ
ᄉ
ᄊ
ᄋ
ᄌ
ᄎ
ᄏ
ᄐ
ᄑ
ᄒ
ᅡ
ᅢ
ᅥ
ᅦ
ᅧ
ᅩ
ᅪ
ᅭ
ᅮ
ᅯ
ᅲ
ᅳ
ᅴ
ᅵ
ᆨ
ᆫ
ᆯ
ᆷ
ᆸ
ᆼ
ᴬ
ᴮ
ᴰ
ᴵ
ᴺ
ᵀ
ᵃ
ᵇ
ᵈ
ᵉ
ᵍ
ᵏ
ᵐ
ᵒ
ᵖ
ᵗ
ᵘ
ᵢ
ᵣ
ᵤ
ᵥ
ᶜ
ᶠ
‐
‑
‒
‖
‚
„
†
‡
…
″
›
⁰
ⁱ
⁴
⁵
⁶
⁷
⁸
⁹
⁺
⁻
ⁿ
₀
₁
₂
₃
₄
₅
₆
₇
₈
₉
₊
₍
₎
ₐ
ₑ
ₒ
ₓ
ₕ
ₖ
ₗ
ₘ
ₙ
ₚ
ₛ
ₜ
₤
₩
€
₱
₹
ℓ
№
ℝ
™
⅓
⅔
↔
↦
⇄
⇌
⇒
∂
∅
∆
∈
∗
∘
∧
∨
∪
⊂
⊆
⊕
⊗
⋅
☉
♠
♣
♦
♭
♯
⟨
⟩
ⱼ
⺩
⺼
⽥
ぬ
亻
仮
劉
勝
囗
宀
宮
岡
島
巿
彳
忄
戸
扌
楊
樹
橋
氵
氷
瀬
疒
糹
葉
訁
貝
貴
辶
鈴
阝
陽
龍
龸
ﬁ
ﬂ
－
．
／
##s
##a
##e
##i
##ing
during
##n
##o
school
between
three
##d
##ed
##r
##y
later
##t
around
such
being
state
against
university
both
national
##er
these
known
until
didn
##ly
american
##l
born
united
film
since
south
became
any
season
war
states
including
took
north
called
however
four
another
won
area
here
going
away
series
home
company
several
john
album
following
released
played
began
district
##m
those
held
early
county
league
west
##u
##es
government
##h
march
came
small
general
june
##on
##k
september
thought
looked
along
international
july
club
went
january
october
august
april
york
few
member
college
father
##us
five
station
church
##c
former
november
located
december
##g
though
century
without
within
women
single
building
large
population
river
named
white
started
##an
once
service
built
british
death
moved
children
february
president
final
wasn
although
due
major
died
village
third
knew
asked
turned
wanted
##p
together
received
served
different
##en
behind
himself
felt
members
football
##in
near
history
having
##man
saw
mother
##al
army
front
english
street
hands
games
award
##ia
published
country
division
across
told
often
french
london
six
days
among
species
according
central
half
original
gave
making
enough
lost
opened
must
included
given
german
player
business
woman
community
cup
might
million
court
development
short
round
seen
become
sure
almost
director
council
##2
career
using
island
##z
couldn
##is
##1
control
students
education
married
##b
nothing
worked
others
record
inside
anything
continued
james
##3
military
established
returned
written
feet
william
far
association
hard
already
##ra
championship
human
western
##na
department
role
various
production
living
version
##ers
##f
television
royal
##4
produced
working
case
society
region
radio
period
looking
least
total
england
wife
brother
mind
special
##le
soon
##6
political
george
services
taken
created
##7
further
reached
david
union
joined
upon
done
social
information
either
##ic
##x
appeared
ground
lead
dark
election
france
hair
course
arms
police
girl
instead
##v
words
moment
##te
##8
summer
announced
wrote
past
followed
##5
blue
founded
finally
india
taking
records
america
##ne
design
considered
northern
god
battle
toward
european
outside
described
track
today
playing
heard
professional
australia
miles
california
yet
green
##ie
trying
blood
##ton
southern
maybe
everything
match
square
mouth
recorded
leave
above
##9
daughter
points
museum
change
common
##0
post
##ta
lake
seven
tried
elected
closed
paul
minister
##th
months
chief
canada
sea
release
similar
modern
brought
hit
formed
mr
##la
floor
event
doing
thomas
robert
care
killed
training
week
needed
turn
finished
railway
rather
health
sent
example
michael
coming
currently
yes
forces
despite
gold
areas
stage
dead
says
popular
originally
germany
probably
developed
pulled
stood
running
signed
songs
child
eventually
tour
average
teams
minutes
festival
current
deep
kind
decided
usually
eastern
seemed
##ness
bed
added
indian
private
charles
route
available
throughout
centre
addition
appointed
books
eight
construction
wall
friends
remained
schools
study
##ch
##um
institute
chinese
sometimes
events
possible
australian
brown
forward
food
debut
seat
performance
committee
features
character
arts
herself
strong
russian
hours
peter
##da
morning
sold
##ry
quickly
directed
guitar
##w
##ma
performed
players
smile
##rs
myself
placed
coach
province
towards
wouldn
leading
whole
official
designed
grand
census
##el
europe
attack
japanese
henry
##re
##os
cross
getting
alone
action
lower
network
wide
washington
japan
hospital
believe
changed
sister
##ar
hold
gone
sir
hadn
##ka
studies
academy
shot
rights
below
bad
involved
kept
largest
##ist
bank
future
especially
beginning
movement
section
female
magazine
professor
lord
longer
##ian
sat
walked
hill
actually
civil
energy
families
thus
aircraft
completed
includes
captain
##or
fight
vocals
featured
richard
bridge
fourth
officer
stone
hear
##ism
means
medical
groups
management
lips
competition
entire
lived
technology
leaving
federal
tournament
passed
hot
independent
awards
kingdom
mary
spent
fine
doesn
reported
##ling
jack
raised
itself
stay
studio
sports
replaced
paris
systems
saint
leader
theatre
whose
market
capital
parents
spanish
canadian
earth
##ity
degree
writing
bay
christian
awarded
natural
higher
bill
##as
coast
provided
previous
senior
valley
organization
stopped
onto
countries
parts
conference
queen
security
interest
saying
allowed
earlier
matter
smith
winning
happened
moving
campaign
##ley
breath
nearly
certain
girls
italian
african
standing
fell
artist
##ted
shows
deal
industry
##ng
everyone
republic
provide
collection
library
student
##ville
primary
owned
older
via
heavy
1st
makes
##able
attention
anyone
africa
##ri
stated
length
ended
fingers
command
staff
skin
foreign
opening
governor
okay
medal
job
introduced
chest
hell
feeling
##ies
success
meet
reason
standard
meeting
novel
trade
source
buildings
##land
rose
guy
goal
##ur
chapter
native
husband
previously
limited
entered
weeks
operations
mountain
takes
covered
forced
related
roman
complete
successful
texas
cold
##ya
channel
traditional
films
dance
clear
approximately
nine
prince
active
tracks
ireland
regional
silver
author
personal
sense
operation
##ine
economic
holding
twenty
isbn
additional
speed
hour
edition
regular
historic
places
whom
shook
km²
secretary
prior
report
chicago
foundation
engine
scored
units
ask
airport
property
ready
immediately
lady
month
listed
contract
##de
manager
themselves
lines
##ki
navy
writer
meant
##ts
runs
##ro
practice
championships
singer
glass
commission
required
forest
starting
culture
generally
giving
access
attended
test
couple
stand
catholic
martin
caught
executive
##less
eye
##ey
thinking
chair
quite
shoulder
hope
decision
plays
defeated
municipality
whether
structure
offered
slowly
pain
direction
##ion
paper
mostly
noted
individual
managed
nature
lives
plant
##ha
helped
except
studied
computer
figure
relationship
issue
significant
loss
smiled
gun
highest
##am
male
bring
goals
mexico
problem
distance
commercial
completely
location
annual
famous
neck
caused
italy
understand
greek
highway
wrong
hotel
comes
appearance
joseph
issues
musical
companies
castle
income
review
assembly
bass
initially
parliament
artists
experience
particular
engineering
talking
window
dropped
##ter
boys
break
stars
remember
policy
carried
train
stadium
angeles
evidence
##ge
becoming
assistant
soviet
upper
step
wing
youth
financial
reach
##ll
numerous
##se
##st
nodded
arrived
##ation
minute
##nt
believed
complex
beautiful
victory
associated
temple
chance
perhaps
metal
##son
bishop
##et
lee
launched
particularly
tree
retired
subject
prize
contains
yeah
theory
empire
##ce
suddenly
waiting
trust
recording
##to
terms
camp
champion
religious
pass
zealand
names
2nd
ancient
corner
represented
watch
legal
justice
cause
watched
brothers
material
changes
simply
response
louis
##ting
historical
stories
straight
create
feature
increased
administration
virginia
activities
cultural
overall
winner
programs
basketball
legs
guard
beyond
doctor
flight
results
remains
cost
winter
##ble
larger
islands
problems
chairman
grew
commander
isn
failed
selected
hurt
regiment
majority
journal
edward
plans
##ke
##ni
shown
pretty
irish
characters
directly
likely
operated
allow
spring
##j
junior
matches
looks
mike
houses
fellow
##tion
beach
marriage
##ham
##ive
rules
oil
florida
expected
nearby
congress
sam
peace
recent
iii
wait
subsequently
##do
variety
serving
agreed
please
poor
joe
pacific
attempt
democratic
piece
prime
##ca
rural
mile
appears
township
soldiers
##men
##ized
pennsylvania
closer
fighting
claimed
score
jones
physical
editor
##ous
filled
genus
specific
sitting
mom
##va
therefore
supported
status
fear
cases
meaning
wales
minor
spain
tower
focus
vice
frank
parish
separate
golden
horse
fifth
remaining
branch
presented
stared
##id
uses
secret
forms
##co
baseball
exactly
##ck
choice
discovered
travel
composed
truth
russia
dad
continue
referred
numbers
digital
greater
##ns
metres
slightly
direct
increase
responsible
crew
rule
trees
troops
##no
broke
goes
individuals
hundred
creek
sleep
memory
defense
provides
ordered
jewish
safe
judge
whatever
corps
realized
growing
##ga
cities
alexander
gaze
lies
spread
scott
letter
showed
situation
mayor
transport
watching
workers
extended
##li
expression
normal
##ment
chart
multiple
##ba
##ner
daily
mrs
walls
piano
##ko
heat
cannot
##ate
earned
products
authority
seasons
join
grade
##io
difficult
machine
territory
mainly
##wood
stations
squadron
stepped
iron
19th
##led
serve
appear
speak
broken
charge
knowledge
kilometres
removed
ships
campus
##ty
pushed
britain
##ve
leaves
recently
boston
latter
acquired
poland
##sa
quality
officers
presence
planned
nations
mass
broadcast
jean
share
image
influence
wild
emperor
electric
reading
headed
promoted
yellow
ministry
throat
smaller
politician
##by
latin
spoke
cars
williams
males
lack
##ier
acting
seeing
consists
##ti
estate
pressure
johnson
newspaper
jr
chris
olympics
online
conditions
elements
walking
vote
##field
needs
carolina
featuring
global
shirt
levels
francisco
purpose
females
dutch
duke
ahead
gas
twice
safety
serious
turning
highly
lieutenant
firm
maria
amount
mixed
daniel
proposed
perfect
agreement
affairs
3rd
seconds
contemporary
paid
prison
save
kitchen
label
administrative
intended
constructed
academic
teacher
races
formerly
corporation
nation
issued
shut
drums
housing
victoria
seems
opera
graduated
von
mentioned
picked
recognized
shortly
protection
picture
notable
exchange
elections
1980s
loved
percent
racing
fish
elizabeth
garden
volume
hockey
beside
settled
##ford
competed
replied
drew
actress
marine
scotland
steel
glanced
farm
steve
risk
tonight
positive
magic
singles
effects
gray
screen
##ja
residents
sides
secondary
literature
polish
destroyed
flying
founder
households
reserve
usa
gallery
##ler
industrial
younger
approach
appearances
urban
ones
finish
avenue
powerful
fully
growth
page
honor
jersey
projects
advanced
revealed
basic
infantry
pair
equipment
visit
evening
grant
effort
treatment
buried
republican
primarily
owner
1970s
israel
gives
jim
bob
remain
spot
notes
produce
champions
contact
soul
accepted
ways
##ally
losing
split
price
capacity
basis
trial
questions
##ina
20th
guess
officially
memorial
naval
initial
##ization
whispered
median
engineer
##ful
sydney
##go
columbia
strength
tears
senate
asian
agent
software
draw
warm
supposed
##il
transferred
leaned
##at
candidate
escape
mountains
asia
potential
activity
entertainment
seem
traffic
jackson
murder
slow
product
orchestra
haven
agency
bbc
taught
website
comedy
unable
storm
planning
albums
rugby
environment
scientific
grabbed
protect
##hi
boat
typically
damage
principal
divided
dedicated
mount
ohio
##berg
pick
fought
driver
##der
empty
shoulders
sort
thank
berlin
prominent
account
freedom
necessary
efforts
alex
headquarters
follows
alongside
simon
andrew
suggested
operating
learning
steps
sweet
technical
easily
teeth
speaking
settlement
scale
##sh
renamed
enemy
semi
joint
compared
##rd
scottish
leadership
analysis
offers
georgia
pieces
captured
animal
deputy
guest
organized
##lin
tony
combined
challenge
1960s
huge
wants
battalion
sons
rise
crime
types
facilities
telling
platform
sit
1990s
##lo
tells
assigned
pull
##ot
commonly
alive
##za
letters
concept
conducted
wearing
happen
bought
becomes
holy
gets
ocean
defeat
languages
purchased
coffee
occurred
titled
##q
declared
applied
sciences
concert
sounds
jazz
brain
##me
painting
fleet
tax
nick
##ius
michigan
animals
leaders
episodes
##line
##den
birth
##it
clubs
palace
critical
refused
fair
laughed
returning
surrounding
participated
formation
lifted
pointed
connected
rome
medicine
laid
taylor
santa
powers
adam
tall
shared
focused
knowing
yards
entrance
falls
##wa
calling
##ad
sources
chosen
beneath
resources
yard
##ite
nominated
silence
zone
defined
##que
gained
thirty
bodies
moon
##ard
adopted
christmas
widely
register
apart
iran
premier
serves
unknown
parties
##les
generation
##ff
continues
quick
fields
brigade
quiet
teaching
clothes
impact
weapons
partner
flat
theater
supreme
relations
##tor
plants
suffered
wilson
kids
begins
##age
seats
armed
internet
models
worth
laws
communities
classes
knows
thanks
quarter
reaching
humans
killing
format
kong
setting
architecture
disease
railroad
inc
possibly
wish
arthur
thoughts
harry
doors
density
##di
crowd
illinois
stomach
tone
unique
reports
anyway
##ir
liberal
vehicle
thick
dry
drug
faced
largely
facility
theme
holds
creation
strange
colonel
##mi
revolution
bell
politics
turns
silent
rail
relief
independence
combat
shape
determined
sales
learned
4th
finger
oxford
providing
heritage
fiction
situated
designated
allowing
distribution
hosted
##est
sight
interview
estimated
reduced
##ria
toronto
footballer
keeping
guys
damn
claim
sport
sixth
stayed
##ze
rear
receive
handed
twelve
dress
audience
granted
brazil
##well
##ated
noticed
olympic
representative
eric
tight
trouble
reviews
drink
vampire
missing
roles
ranked
newly
household
finals
wave
critics
##ee
phase
massachusetts
pilot
unlike
philadelphia
bright
guns
crown
organizations
roof
respectively
clearly
tongue
marked
circle
fox
korea
bronze
brian
expanded
sexual
supply
yourself
inspired
labour
##ah
reference
draft
connection
brand
reasons
classic
driving
trip
jesus
cells
entry
neither
trail
claims
atlantic
orders
labor
nose
afraid
identified
intelligence
calls
cancer
attacked
passing
stephen
positions
imperial
grey
jason
sunday
swedish
avoid
extra
uncle
message
covers
allows
surprise
materials
fame
hunter
##ji
citizens
figures
davis
environmental
confirmed
shit
titles
performing
difference
acts
attacks
##ov
existing
votes
opportunity
entirely
trains
opposite
pakistan
##pa
develop
resulted
representatives
actions
reality
pressed
##ish
barely
wine
conversation
faculty
northwest
ends
documentary
nuclear
stock
grace
sets
alternative
##ps
bag
resulting
creating
surprised
cemetery
drop
finding
sarah
cricket
streets
tradition
ride
exhibition
explained
composer
injury
apartment
municipal
educational
occupied
netherlands
clean
billion
constitution
learn
maximum
classical
francis
lose
opposition
jose
ontario
bear
hills
rolled
drawn
permanent
##tes
##lla
lewis
sites
chamber
ryan
##way
scoring
##house
lyrics
staring
officials
snow
oldest
##tic
orange
##ger
qualified
interior
apparently
succeeded
thousand
dinner
lights
existence
fans
heavily
greatest
conservative
send
bowl
catch
##un
economy
duty
speech
authorities
princess
performances
versions
shall
graduate
pictures
effective
remembered
poetry
desk
crossed
starring
starts
passenger
sharp
##ant
acres
weather
falling
rank
fund
supporting
adult
publishing
heads
southeast
lane
##burg
application
##ura
condition
transfer
prevent
regions
earl
federation
cool
relatively
answered
besides
obtained
portion
##town
mix
##ding
reaction
liked
dean
express
peak
##tte
counter
religion
chain
rare
miller
convention
vehicles
perform
squad
wonder
lying
crazy
sword
##ping
attempted
centuries
weren
philosophy
category
##ize
interested
sweden
wolf
frequently
abandoned
literary
alliance
task
entitled
##ay
threw
promotion
factory
tiny
soccer
visited
matt
fm
achieved
defence
internal
persian
methods
##ging
arrested
otherwise
cambridge
programming
villages
elementary
districts
rooms
criminal
conflict
worry
trained
attempts
waited
signal
bird
truck
subsequent
programme
##ol
communist
details
faith
sector
patrick
carrying
laugh
##ss
controlled
korean
showing
origin
fuel
evil
##ent
brief
identity
darkness
address
pool
missed
publication
planet
anne
wings
invited
##tt
briefly
standards
kissed
##be
ideas
climate
causing
walter
worse
albert
articles
winners
desire
aged
northeast
dangerous
gate
doubt
wooden
##ky
poet
rising
funding
communications
communication
violence
copies
prepared
investigation
skills
pulling
electronic
##ak
##ial
##han
containing
ultimately
offices
singing
understanding
restaurant
tomorrow
fashion
christ
pope
stands
5th
studios
aired
commissioned
contained
exist
fresh
americans
##per
wrestling
approved
kid
employed
respect
suit
angel
asking
increasing
angry
selling
1950s
thin
finds
##nd
temperature
statement
explain
inhabitants
towns
extensive
narrow
jane
flowers
images
promise
somewhere
fly
closely
##ls
bureau
cape
weekly
presidential
legislative
##ai
##au
launch
founding
##ny
##ring
artillery
strike
institutions
writers
landing
chose
kevin
anymore
##ut
attorney
billboard
receiving
agricultural
breaking
sought
dave
admitted
lands
mexican
##bury
charlie
specifically
hole
howard
credit
moscow
roads
accident
proved
wear
struck
hey
guards
stuff
slid
expansion
anthony
##kin
melbourne
opposed
southwest
architect
failure
plane
##ron
camera
tank
listen
regarding
wet
introduction
metropolitan
fighter
inch
grown
fixed
buy
dvd
khan
domestic
worldwide
chapel
mill
functions
examples
##head
developing
turkey
hits
pocket
antonio
papers
grow
unless
circuit
18th
concerned
attached
journalist
selection
journey
converted
provincial
painted
hearing
aren
bands
negative
aside
wondered
knight
lap
survey
##ow
noise
billy
##ium
shooting
guide
bedroom
priest
resistance
motor
homes
sounded
giant
##mer
scenes
equal
comic
patients
hidden
actual
bringing
afternoon
touched
funds
wedding
consisted
marie
canal
sr
kim
treaty
turkish
recognition
residence
cathedral
broad
knees
incident
shaped
fired
norwegian
handle
cheek
contest
represent
##pe
representing
beauty
##sen
birds
advantage
emergency
wrapped
drawing
notice
pink
broadcasting
##ong
somehow
bachelor
seventh
collected
registered
establishment
alan
assumed
chemical
personnel
roger
retirement
jeff
portuguese
wore
tied
device
threat
progress
advance
##ised
banks
hired
manchester
nfl
teachers
structures
forever
##bo
tennis
helping
saturday
sale
applications
junction
incorporated
neighborhood
dressed
ceremony
##ds
influenced
hers
visual
stairs
decades
inner
kansas
hung
hoped
gain
scheduled
downtown
engaged
austria
clock
norway
certainly
pale
protected
victor
employees
plate
putting
surrounded
##ists
finishing
blues
tropical
##ries
minnesota
consider
philippines
accept
retrieved
concern
anderson
properties
institution
gordon
successfully
vietnam
##dy
backing
outstanding
muslim
crossing
folk
producing
usual
demand
occurs
observed
lawyer
educated
##ana
kelly
pleasure
budget
items
quietly
colorado
philip
typical
##worth
derived
survived
asks
mental
##ide
jake
jews
distinguished
ltd
sri
extremely
athletic
loud
thousands
worried
shadow
transportation
horses
weapon
arena
importance
users
tim
objects
contributed
dragon
douglas
aware
senator
johnny
jordan
sisters
engines
investment
samuel
shock
capable
clark
wheel
refers
session
familiar
biggest
wins
hate
maintained
drove
hamilton
request
expressed
injured
underground
churches
walker
wars
tunnel
passes
stupid
agriculture
softly
cabinet
regarded
joining
indiana
##ea
##ms
push
dates
spend
behavior
woods
protein
gently
chase
morgan
mention
burning
wake
combination
occur
mirror
leads
jimmy
indeed
impossible
singapore
paintings
covering
##nes
soldier
locations
attendance
sell
historian
wisconsin
invasion
argued
painter
diego
changing
egypt
##don
experienced
inches
##ku
missouri
vol
grounds
spoken
switzerland
##gan
reform
rolling
forget
massive
resigned
burned
allen
tennessee
locked
values
improved
##mo
wounded
universe
sick
dating
facing
purchase
##pur
moments
##ul
merged
anniversary
coal
brick
understood
causes
dynasty
queensland
establish
stores
crisis
promote
hoping
views
cards
referee
extension
##si
raise
arizona
improve
colonial
formal
charged
##rt
palm
lucky
hide
rescue
faces
feelings
candidates
juan
##ell
goods
6th
courses
weekend
luke
cash
fallen
##om
delivered
affected
installed
carefully
tries
swiss
hollywood
costs
lincoln
responsibility
##he
shore
proper
normally
maryland
assistance
jump
constant
offering
friendly
waters
persons
realize
contain
trophy
partnership
factor
musicians
bound
oregon
indicated
hero
houston
medium
##ure
consisting
somewhat
##ara
cycle
##che
beer
moore
frederick
gotten
eleven
worst
weak
approached
arranged
loan
universal
bond
fifteen
pattern
disappeared
##ney
translated
##zed
arab
capture
interests
insurance
##chi
shifted
cave
prix
warning
sections
courts
coat
plot
smell
feed
golf
favorite
maintain
knife
voted
degrees
finance
quebec
opinion
translation
manner
ruled
operate
productions
choose
musician
discovery
confused
tired
separated
stream
techniques
committed
attend
ranking
kings
throw
passengers
measure
horror
mining
sand
danger
salt
calm
decade
require
runner
##ik
associate
greece
##ker
rivers
consecutive
matthew
##ski
sighed
documents
edited
closing
tie
accused
##ini
islamic
distributed
directors
organisation
bruce
7th
breathing
mad
arrival
concrete
taste
composition
shaking
faster
amateur
adjacent
stating
twin
flew
##ran
tokyo
publications
##tone
obviously
ridge
storage
carl
pages
concluded
desert
driven
universities
terminal
sequence
borough
constituency
creative
cousin
economics
dreams
margaret
notably
reduce
montreal
mode
17th
ears
saved
jan
vocal
##ica
andy
##jo
riding
roughly
threatened
##ise
meters
meanwhile
landed
compete
repeated
grass
czech
regularly
charges
tea
sudden
appeal
##ung
solution
describes
pierre
classification
glad
parking
##ning
belt
physics
rachel
hungarian
participate
expedition
damaged
gift
childhood
fifty
##red
mathematics
jumped
letting
defensive
mph
##ux
##gh
testing
##hip
hundreds
shoot
owners
matters
smoke
israeli
kentucky
dancing
mounted
grandfather
emma
designs
profit
argentina
##gs
truly
lawrence
cole
begun
detroit
willing
branches
smiling
decide
miami
enjoyed
recordings
##dale
poverty
ethnic
##bi
gary
arabic
accompanied
##one
##ons
fishing
determine
residential
##ary
alice
returns
starred
##ang
jonathan
strategy
##ue
forty
cook
businesses
equivalent
commonwealth
distinct
##cy
seriously
##ors
##ped
shift
harris
replace
imagine
ensure
##ber
additionally
scheme
conservation
occasionally
purposes
feels
favor
##and
##ore
1930s
contrast
hanging
hunt
movies
instruments
victims
danish
christopher
busy
demon
sugar
earliest
colony
studying
balance
duties
##ks
belgium
slipped
carter
visible
stages
iraq
fifa
##im
commune
forming
zero
continuing
talked
counties
legend
bathroom
option
tail
clay
daughters
afterwards
severe
jaw
visitors
##ded
devices
aviation
russell
kate
##vi
entering
subjects
##ino
temporary
swimming
forth
smooth
ghost
audio
bush
operates
rocks
movements
signs
eddie
##tz
ann
voices
honorary
memories
dallas
pure
measures
racial
promised
harvard
ceo
16th
parliamentary
indicate
benefit
flesh
dublin
louisiana
patient
sleeping
membership
coastal
medieval
wanting
element
scholars
rice
limit
survive
makeup
rating
definitely
collaboration
obvious
##tan
baron
birthday
linked
soil
diocese
##lan
ncaa
##mann
offensive
shouldn
waist
##tus
plain
resolution
manufacturing
adding
kennedy
whilst
moth
marketing
gardens
crash
heading
partners
credited
carlos
moves
cable
##zi
marshall
##out
depending
bottle
represents
rejected
responded
existed
jobs
denmark
##ating
treated
graham
routes
talent
commissioner
drugs
secure
tests
reign
restored
photography
##gi
contributions
oklahoma
designer
disc
grin
seattle
robin
paused
atlanta
unusual
##gate
praised
laughing
satellite
hungary
visiting
##sky
interesting
factors
deck
poems
norman
##water
stuck
speaker
rifle
domain
premiered
##her
comics
actors
reputation
eliminated
8th
ceiling
prisoners
##nce
leather
austin
mississippi
rapidly
admiral
parallel
charlotte
guilty
tools
gender
divisions
fruit
##bs
laboratory
nelson
fantasy
marry
rapid
aunt
tribe
requirements
aspects
suicide
amongst
adams
bone
ukraine
kick
sees
edinburgh
clothing
column
rough
gods
hunting
broadway
gathered
concerns
##ek
spending
12th
snapped
requires
solar
bones
cavalry
##tta
iowa
drinking
waste
franklin
charity
thompson
stewart
tip
landscape
friday
enjoy
singh
poem
listening
##back
eighth
fred
differences
adapted
bomb
ukrainian
surgery
corporate
masters
anywhere
##more
waves
odd
sean
portugal
orleans
dick
debate
kent
eating
puerto
cleared
expect
cinema
guitarist
blocks
electrical
agree
involving
depth
dying
panel
struggle
##ged
peninsula
adults
novels
emerged
vienna
metro
debuted
shoes
tamil
songwriter
meets
prove
beating
instance
heaven
scared
sending
marks
artistic
passage
superior
significantly
shopping
##tive
retained
##izing
malaysia
technique
cheeks
##ola
warren
maintenance
destroy
extreme
allied
appearing
##yn
fill
advice
alabama
qualifying
policies
cleveland
battery
smart
authors
10th
soundtrack
acted
dated
lb
glance
equipped
coalition
funny
outer
ambassador
roy
possibility
couples
campbell
dna
loose
ethan
supplies
gonna
monster
##res
shake
agents
frequency
springs
dogs
practices
gang
plastic
easier
suggests
gulf
blade
exposed
colors
industries
markets
nervous
electoral
charts
legislation
ownership
##idae
appointment
shield
copy
assault
socialist
abbey
monument
license
throne
employment
jay
replacement
charter
cloud
powered
suffering
accounts
oak
connecticut
strongly
wright
colour
crystal
13th
context
welsh
networks
voiced
gabriel
jerry
##cing
forehead
##ens
manage
schedule
totally
remix
##ii
forests
occupation
nicholas
brazilian
strategic
vampires
engineers
roots
seek
correct
instrumental
alfred
backed
hop
##des
stanley
robinson
traveled
wayne
welcome
austrian
achieve
exit
rates
strip
whereas
##cs
deeply
adventure
bobby
jamie
careful
components
useful
personality
knee
##shi
pushing
hosts
protest
ottoman
symphony
##sis
boundary
1890
processes
considering
considerable
tons
##work
##ft
##nia
cooper
trading
dear
conduct
illegal
revolutionary
holiday
definition
harder
##van
jacob
circumstances
destruction
##lle
popularity
grip
classified
liverpool
donald
baltimore
flows
seeking
honour
approval
mechanical
till
happening
statue
critic
increasingly
immediate
describe
commerce
stare
##ster
indonesia
meat
rounds
boats
baker
orthodox
depression
formally
worn
naked
claire
muttered
sentence
11th
emily
document
criticism
wished
vessel
spiritual
bent
virgin
parker
minimum
murray
lunch
danny
printed
compilation
keyboards
false
blow
belonged
raising
cutting
##board
pittsburgh
##up
9th
shadows
hated
indigenous
jon
15th
barry
scholar
##zer
oliver
##gy
stick
susan
meetings
attracted
spell
romantic
##ver
photo
demanded
customers
##ac
logan
revival
keys
modified
commanded
jeans
##ious
upset
raw
phil
detective
hiding
resident
vincent
##bly
experiences
diamond
defeating
coverage
lucas
external
parks
franchise
helen
bible
successor
percussion
celebrated
lift
profile
clan
romania
##ied
mills
##su
nobody
achievement
shrugged
fault
rhythm
initiative
breakfast
carbon
lasted
violent
wound
killer
gradually
filmed
°c
dollars
processing
remove
criticized
guests
sang
chemistry
##vin
legislature
disney
##bridge
uniform
escaped
integrated
proposal
purple
denied
liquid
karl
influential
morris
nights
stones
intense
experimental
twisted
##ld
pace
nazi
mitchell
blind
reporter
newspapers
14th
centers
burn
basin
forgotten
surviving
filed
collections
monastery
losses
manual
couch
description
appropriate
merely
tag
missions
sebastian
restoration
replacing
triple
elder
julia
warriors
benjamin
julian
convinced
stronger
amazing
declined
versus
merchant
happens
output
finland
bare
barbara
absence
ignored
dawn
injuries
##port
producers
##ram
luis
##ities
admit
expensive
electricity
exception
symbol
##ving
ladies
shower
sheriff
characteristics
##je
aimed
button
ratio
effectively
summit
angle
jury
bears
foster
vessels
pants
executed
evans
dozen
advertising
kicked
patrol
1889
competitions
lifetime
principles
athletics
##logy
birmingham
sponsored
rob
nomination
1893
acoustic
##sm
creature
longest
##tra
credits
harbor
josh
##so
territories
milk
infrastructure
completion
thailand
indians
leon
archbishop
##sy
assist
pitch
blake
arrangement
girlfriend
serbian
operational
hence
sad
scent
fur
sessions
hp
refer
rarely
##ora
exists
1892
##ten
scientists
dirty
penalty
burst
portrait
seed
pole
limits
rival
1894
stable
grave
constitutional
alcohol
arrest
flower
mystery
devil
architectural
relationships
greatly
habitat
##istic
larry
progressive
remote
cotton
##ics
##ok
preserved
reaches
##ming
cited
vast
scholarship
decisions
cbs
teach
1885
editions
knocked
searching
partly
participation
gap
animated
fate
excellent
##ett
alternate
saints
youngest
##ily
climbed
##ita
##tors
suggest
##ct
discussion
staying
choir
lakes
jacket
revenue
nevertheless
peaked
instrument
wondering
annually
managing
neil
1891
signing
terry
##ice
apply
clinical
brooklyn
aim
catherine
farmers
figured
ninth
pride
hugh
evolution
ordinary
involvement
comfortable
shouted
encouraged
taiwan
representation
sharing
##lia
##em
panic
exact
cargo
competing
fat
cried
1920s
occasions
cabin
borders
utah
marcus
##isation
badly
muscles
##ance
victorian
transition
warner
bet
permission
##rin
slave
terrible
similarly
shares
seth
uefa
possession
medals
benefits
colleges
lowered
perfectly
transit
##ye
##kar
publisher
##ened
harrison
deaths
elevation
##ae
asleep
machines
sigh
hardly
argument
occasion
parent
leo
decline
1888
contribution
##ua
concentration
opportunities
hispanic
guardian
extent
emotions
hips
mason
volumes
bloody
controversy
diameter
steady
mistake
phoenix
identify
violin
##sk
departure
richmond
spin
funeral
enemies
1864
gear
literally
connor
random
sergeant
grab
confusion
1865
transmission
informed
leaning
sacred
suspended
thinks
gates
portland
luck
agencies
yours
hull
expert
muscle
layer
practical
sculpture
jerusalem
latest
lloyd
statistics
deeper
recommended
warrior
arkansas
mess
supports
greg
eagle
1880
recovered
rated
concerts
rushed
##ano
stops
eggs
files
premiere
keith
##vo
delhi
turner
pit
affair
belief
paint
##zing
##ach
##ev
victim
##ology
withdrew
bonus
styles
fled
##ud
glasgow
technologies
funded
nbc
adaptation
##ata
portrayed
cooperation
supporters
judges
bernard
justin
hallway
ralph
##ick
graduating
controversial
distant
continental
spider
bite
##ho
recognize
intention
mixing
##ese
egyptian
bow
tourism
suppose
claiming
tiger
dominated
participants
##ru
nurse
partially
tape
##rum
psychology
##rn
essential
touring
duo
voting
civilian
emotional
channels
##king
apparent
hebrew
1887
tommy
carrier
intersection
beast
hudson
##gar
##zo
nova
bench
discuss
costa
##ered
detailed
behalf
drivers
unfortunately
obtain
##lis
rocky
##dae
siege
friendship
honey
##rian
1861
amy
posted
governments
collins
respond
wildlife
preferred
operator
##po
laura
pregnant
videos
dennis
suspected
boots
instantly
weird
automatic
businessman
alleged
placing
throwing
mood
1862
perry
venue
jet
remainder
##lli
##ci
passion
biological
boyfriend
1863
dirt
buffalo
segment
abuse
##era
genre
thrown
stroke
colored
stress
exercise
displayed
##gen
struggled
##tti
abroad
dramatic
wonderful
thereafter
madrid
component
widespread
##sed
tale
citizen
todd
monday
1886
vancouver
overseas
forcing
crying
descent
##ris
discussed
substantial
ranks
regime
1870
provinces
switch
drum
zane
tribes
proof
cream
researchers
volunteer
manor
silk
milan
donated
allies
venture
principle
delivery
enterprise
##ves
##ans
bars
traditionally
witch
reminded
copper
##uk
pete
links
colin
grinned
elsewhere
competitive
frequent
##oy
scream
##hu
tension
texts
submarine
finnish
defending
defend
1884
affiliated
stuart
themes
villa
periods
tool
belgian
ruling
crimes
answers
folded
licensed
resort
demolished
hans
lucy
1881
lion
traded
photographs
writes
craig
##fa
trials
generated
beth
noble
debt
percentage
yorkshire
erected
viewed
grades
confidence
ceased
islam
telephone
retail
##ible
chile
m²
roberts
sixteen
##ich
commented
hampshire
innocent
dual
pounds
checked
regulations
afghanistan
sung
rico
liberty
assets
bigger
options
angels
relegated
tribute
wells
attending
leaf
##yan
butler
romanian
forum
monthly
lisa
patterns
gmina
##tory
madison
hurricane
rev
##ians
bristol
##ula
elite
valuable
disaster
democracy
awareness
germans
freyja
##ins
loop
absolutely
paying
populations
maine
sole
prayer
spencer
releases
doorway
bull
##ani
lover
midnight
conclusion
##sson
thirteen
lily
mediterranean
##lt
nhl
proud
sample
##hill
drummer
guinea
##ova
murphy
climb
##ston
instant
attributed
horn
railways
steven
##ao
autumn
ferry
opponent
traveling
secured
corridor
stretched
tales
sheet
trinity
cattle
helps
indicates
manhattan
murdered
fitted
1882
gentle
grandmother
mines
shocked
vegas
produces
##light
caribbean
##ou
belong
continuous
desperate
drunk
historically
trio
waved
raf
dealing
nathan
murmured
interrupted
residing
scientist
pioneer
harold
aaron
##net
delta
attempting
minority
believes
chorus
tend
lots
eyed
indoor
shots
updated
jail
##llo
concerning
connecting
wealth
##ved
slaves
arrive
rangers
sufficient
rebuilt
##wick
cardinal
flood
muhammad
whenever
relation
runners
moral
repair
viewers
arriving
revenge
punk
assisted
bath
fairly
breathe
lists
innings
illustrated
whisper
nearest
voters
clinton
ties
ultimate
screamed
beijing
lions
andre
fictional
gathering
comfort
radar
suitable
dismissed
hms
pine
wrist
atmosphere
voivodeship
bid
timber
##ned
##nan
giants
##ane
cameron
recovery
uss
identical
categories
switched
serbia
laughter
noah
ensemble
therapy
peoples
touching
##off
locally
pearl
platforms
everywhere
ballet
tables
lanka
herbert
outdoor
toured
derek
1883
spaces
contested
swept
1878
exclusive
slight
connections
##dra
winds
prisoner
collective
bangladesh
tube
publicly
wealthy
thai
##ys
isolated
##ric
insisted
fortune
ticket
spotted
reportedly
animation
enforcement
tanks
decides
wider
lowest
owen
##time
nod
hitting
##hn
gregory
furthermore
magazines
fighters
solutions
##ery
pointing
requested
peru
reed
chancellor
knights
mask
worker
eldest
flames
reduction
volunteers
##tis
reporting
##hl
wire
advisory
endemic
origins
settlers
pursue
knock
consumer
1876
compound
creatures
mansion
sentenced
ivan
deployed
guitars
frowned
involves
mechanism
kilometers
perspective
shops
maps
terminus
duncan
alien
fist
bridges
##pers
heroes
fed
derby
swallowed
##ros
patent
sara
illness
characterized
adventures
slide
hawaii
jurisdiction
##op
organised
##side
adelaide
walks
biology
##ties
rogers
swing
tightly
boundaries
##rie
prepare
implementation
stolen
##sha
certified
colombia
edwards
garage
##mm
recalled
##ball
rage
harm
nigeria
breast
##ren
furniture
pupils
settle
##lus
cuba
balls
client
alaska
21st
linear
thrust
celebration
latino
genetic
terror
##cia
##ening
lightning
fee
witness
lodge
establishing
skull
##ique
earning
hood
##ei
rebellion
sporting
warned
missile
devoted
activist
porch
worship
fourteen
package
1871
decorated
##shire
housed
##ock
chess
sailed
doctors
oscar
joan
treat
garcia
harbour
jeremy
##ire
traditions
dominant
jacques
##gon
##wan
relocated
1879
amendment
sized
companion
simultaneously
volleyball
spun
acre
increases
stopping
loves
belongs
affect
drafted
tossed
scout
battles
1875
filming
shoved
munich
tenure
romance
##cher
argue
##ical
craft
ranging
opens
honest
tyler
yesterday
virtual
##let
muslims
reveal
snake
immigrants
radical
screaming
speakers
firing
saving
belonging
lighting
prefecture
blame
farmer
hungry
grows
rubbed
beam
subsidiary
##cha
armenian
sao
dropping
conventional
##fer
microsoft
reply
qualify
spots
1867
sweat
festivals
##ken
immigration
physician
discover
exposure
sandy
explanation
isaac
implemented
##fish
hart
initiated
connect
stakes
presents
heights
householder
pleased
tourist
regardless
slip
closest
##ction
surely
sultan
brings
riley
preparation
aboard
slammed
baptist
experiment
ongoing
interstate
organic
playoffs
##ika
1877
##tar
hindu
error
tours
tier
plenty
arrangements
talks
trapped
excited
sank
athens
1872
denver
welfare
suburb
athletes
trick
diverse
belly
exclusively
yelled
1868
##med
conversion
##ette
1874
internationally
computers
conductor
abilities
sensitive
dispute
measured
globe
rocket
prices
amsterdam
flights
tigers
inn
municipalities
emotion
references
3d
##mus
explains
airlines
manufactured
archaeological
1873
interpretation
devon
comment
##ites
settlements
kissing
improvement
suite
impressed
barcelona
sullivan
jefferson
towers
jesse
julie
##tin
##lu
grandson
gauge
regard
rings
interviews
trace
raymond
thumb
departments
burns
serial
bulgarian
scores
demonstrated
##ix
1866
kyle
alberta
underneath
romanized
##ward
relieved
acquisition
phrase
cliff
reveals
cuts
merger
custom
##dar
nee
gilbert
graduation
##nts
assessment
cafe
difficulty
demands
swung
democrat
jennifer
commons
1940s
grove
##yo
completing
focuses
substitute
bearing
stretch
reception
##py
reflected
essentially
destination
pairs
##ched
survival
resource
##bach
promoting
doubles
messages
tear
##down
##fully
parade
florence
harvey
incumbent
partial
framework
pedro
frozen
procedure
olivia
controls
##mic
shelter
personally
temperatures
##od
brisbane
tested
sits
marble
comprehensive
oxygen
leonard
##kov
inaugural
iranian
referring
quarters
attitude
##ivity
mainstream
lined
mars
dakota
norfolk
unsuccessful
##°
explosion
helicopter
congressional
##sing
inspector
bitch
seal
departed
divine
##ters
coaching
examination
punishment
manufacturer
sink
columns
unincorporated
signals
nevada
squeezed
dylan
dining
photos
martial
manuel
eighteen
elevator
brushed
plates
ministers
ivy
congregation
##len
slept
specialized
taxes
curve
restricted
negotiations
likes
statistical
arnold
inspiration
execution
intermediate
significance
ruler
wheels
gothic
intellectual
dependent
listened
eligible
buses
widow
syria
earn
cincinnati
collapsed
recipient
secrets
accessible
philippine
maritime
goddess
clerk
surrender
breaks
playoff
database
##ified
##lon
ideal
beetle
aspect
soap
regulation
strings
expand
anglo
shorter
crosses
retreat
tough
coins
wallace
directions
pressing
##oon
shipping
locomotives
comparison
topics
nephew
##mes
distinction
honors
travelled
sierra
ibn
##over
fortress
recognised
carved
1869
clients
##dan
intent
##mar
coaches
describing
bread
##ington
beaten
northwestern
##ona
merit
collapse
challenges
historians
objective
submitted
virus
attacking
drake
assume
##ere
diseases
marc
stem
leeds
##cus
##ab
farming
glasses
##lock
visits
nowhere
fellowship
relevant
carries
restaurants
experiments
constantly
bases
targets
shah
tenth
opponents
verse
territorial
##ira
writings
corruption
##hs
instruction
inherited
reverse
emphasis
##vic
employee
keeps
rabbi
watson
payment
uh
##ala
nancy
##tre
venice
fastest
sexy
banned
adrian
properly
ruth
touchdown
dollar
boards
metre
circles
edges
favour
comments
travels
liberation
scattered
firmly
##ular
holland
permitted
diesel
kenya
originated
##ral
demons
resumed
dragged
rider
##rus
servant
blinked
extend
torn
##ias
##sey
input
meal
everybody
cylinder
kinds
camps
##fe
bullet
logic
##wn
croatian
evolved
healthy
fool
chocolate
wise
preserve
pradesh
##ess
respective
1850
##ew
chicken
artificial
gross
corresponding
convicted
cage
caroline
dialogue
##dor
narrative
stranger
mario
christianity
failing
trent
commanding
buddhist
1848
maurice
focusing
yale
bike
altitude
##ering
mouse
revised
##sley
veteran
##ig
pulls
theology
crashed
campaigns
legion
##ability
drag
excellence
customer
cancelled
intensity
excuse
##lar
liga
participating
contributing
printing
##burn
variable
##rk
curious
legacy
renaissance
##my
symptoms
binding
vocalist
dancer
##nie
grammar
gospel
democrats
enters
diplomatic
hitler
##ser
clouds
mathematical
quit
defended
oriented
##heim
fundamental
hardware
impressive
equally
convince
confederate
guilt
chuck
sliding
##ware
magnetic
narrowed
petersburg
bulgaria
otto
phd
skill
##ama
reader
hopes
pitcher
reservoir
hearts
automatically
expecting
mysterious
bennett
extensively
imagined
seeds
monitor
fix
##ative
journalism
struggling
signature
ranch
encounter
photographer
observation
protests
##pin
influences
##hr
calendar
##all
cruz
croatia
locomotive
hughes
naturally
shakespeare
basement
hook
faded
theories
approaches
dare
phillips
filling
fury
obama
##ain
efficient
arc
deliver
raid
breeding
inducted
leagues
efficiency
axis
montana
eagles
##ked
supplied
instructions
karen
picking
indicating
trap
anchor
practically
christians
tomb
vary
occasional
electronics
lords
readers
newcastle
faint
innovation
collect
situations
engagement
claude
mixture
##feld
peer
tissue
##ration
°f
floors
##ven
architects
reducing
##our
##ments
rope
1859
ottawa
##har
samples
banking
declaration
proteins
resignation
francois
saudi
advocate
exhibited
armor
twins
divorce
##ras
abraham
reviewed
temporarily
matrix
physically
pulse
curled
##ena
difficulties
bengal
usage
##ban
annie
riders
certificate
##pi
holes
warsaw
distinctive
jessica
##mon
mutual
1857
customs
circular
eugene
removal
loaded
mere
vulnerable
depicted
generations
dame
heir
enormous
lightly
climbing
pitched
lessons
pilots
nepal
preparing
brad
louise
renowned
##₂
liam
##ably
plaza
shaw
sophie
brilliant
bills
##bar
##nik
fucking
mainland
server
pleasant
seized
veterans
jerked
fail
beta
brush
radiation
stored
warmth
southeastern
nate
raced
berkeley
joke
athlete
designation
trunk
##low
roland
qualification
archives
heels
artwork
receives
judicial
reserves
##bed
woke
installation
abu
floating
fake
lesser
excitement
interface
concentrated
addressed
characteristic
amanda
saxophone
monk
##bus
releasing
egg
dies
interaction
defender
outbreak
glory
loving
##bert
sequel
consciousness
awake
enrolled
##ress
handling
rookie
brow
somebody
biography
warfare
amounts
contracts
presentation
fabric
dissolved
challenged
meter
psychological
elevated
rally
accurate
##tha
hospitals
undergraduate
specialist
venezuela
exhibit
shed
nursing
protestant
fluid
structural
footage
jared
consistent
prey
##ska
succession
reflect
exile
lebanon
wiped
suspect
shanghai
resting
integration
preservation
marvel
variant
pirates
sheep
rounded
capita
sailing
colonies
manuscript
deemed
variations
clarke
functional
emerging
boxing
relaxed
curse
azerbaijan
heavyweight
nickname
editorial
rang
grid
tightened
earthquake
flashed
miguel
rushing
##ches
improvements
boxes
brooks
consumption
molecular
felix
societies
repeatedly
variation
aids
civic
graphics
professionals
realm
autonomous
receiver
delayed
workshop
militia
chairs
trump
canyon
##point
harsh
extending
lovely
happiness
##jan
stake
eyebrows
embassy
wellington
hannah
##ella
sony
corners
bishops
swear
cloth
contents
namely
commenced
1854
stanford
nashville
courage
graphic
commitment
garrison
##bin
hamlet
clearing
rebels
attraction
literacy
cooking
ruins
temples
jenny
humanity
celebrate
hasn
freight
sixty
rebel
bastard
##art
newton
##ada
deer
##ges
##ching
smiles
delaware
singers
##ets
approaching
assists
flame
##ph
boulevard
barrel
planted
##ome
pursuit
##sia
consequences
posts
shallow
invitation
rode
depot
ernest
kane
rod
concepts
preston
chambers
striking
blast
arrives
descendants
montgomery
ranges
worlds
##lay
##ari
span
chaos
praise
##ag
fewer
1855
sanctuary
mud
fbi
##ions
programmes
maintaining
unity
harper
bore
handsome
closure
tournaments
thunder
nebraska
linda
facade
puts
satisfied
argentine
dale
cork
dome
panama
##yl
1858
tasks
experts
##ates
feeding
equation
##las
##ida
##tu
engage
bryan
##ax
quartet
melody
disbanded
sheffield
blocked
gasped
delay
kisses
maggie
connects
##non
sts
poured
creator
publishers
##we
guided
ellis
extinct
hug
gaining
##ord
complicated
##bility
poll
clenched
investigate
##use
thereby
quantum
spine
cdp
humor
kills
administered
semifinals
##du
encountered
ignore
##bu
commentary
##maker
bother
roosevelt
plains
halfway
flowing
cultures
crack
imprisoned
neighboring
airline
##ses
##view
##mate
##ec
gather
wolves
marathon
transformed
##ill
cruise
organisations
carol
punch
exhibitions
numbered
alarm
ratings
daddy
silently
##stein
queens
colours
impression
guidance
liu
tactical
##rat
marshal
della
arrow
##ings
rested
feared
tender
owns
bitter
advisor
escort
##ides
spare
farms
grants
##ene
dragons
encourage
colleagues
cameras
##und
sucked
pile
spirits
prague
statements
suspension
landmark
fence
torture
recreation
bags
permanently
survivors
pond
spy
predecessor
bombing
coup
##og
protecting
transformation
glow
##lands
##book
dug
priests
andrea
feat
barn
jumping
##chen
##ologist
##con
casualties
stern
auckland
pipe
serie
revealing
##bel
trevor
mercy
spectrum
yang
consist
governing
collaborated
possessed
epic
comprises
blew
shane
##ack
lopez
honored
magical
sacrifice
judgment
perceived
hammer
mtv
baronet
tune
das
missionary
sheets
neutral
oral
threatening
attractive
shade
aims
seminary
##master
estates
1856
michel
wounds
refugees
manufacturers
##nic
mercury
syndrome
porter
##iya
##din
hamburg
identification
upstairs
purse
widened
pause
cared
breathed
affiliate
santiago
prevented
celtic
fisher
recruited
byzantine
reconstruction
farther
##mp
diet
sake
spite
sensation
##ert
blank
separation
##hon
vladimir
armies
anime
##lie
accommodate
orbit
cult
sofia
archive
##ify
##box
founders
sustained
disorder
honours
northeastern
mia
crops
violet
threats
blanket
fires
canton
followers
southwestern
prototype
voyage
assignment
altered
moderate
protocol
pistol
##eo
questioned
brass
lifting
1852
authored
##ual
doug
dimensional
dynamic
##san
1851
pronounced
grateful
quest
uncomfortable
boom
presidency
stevens
relating
politicians
barrier
quinn
diana
mosque
tribal
cheese
palmer
portions
sometime
chester
treasure
bend
download
millions
reforms
registration
##osa
consequently
monitoring
preliminary
brandon
invented
eaten
exterior
intervention
ports
documented
displays
lecture
sally
favourite
##itz
vermont
invisible
isle
breed
##ator
journalists
relay
speaks
backward
explore
midfielder
actively
stefan
procedures
cannon
blond
kenneth
centered
servants
chains
libraries
malcolm
essex
henri
slavery
##hal
facts
fairy
coached
cassie
cats
washed
cop
##fi
announcement
2000s
vinyl
activated
marco
frontier
growled
curriculum
##das
loyal
accomplished
leslie
ritual
kenny
##00
vii
napoleon
hollow
hybrid
jungle
stationed
friedrich
counted
##ulated
platinum
seated
rubber
glen
1840
diversity
healing
extends
provisions
administrator
columbus
##oe
tributary
assured
##uous
prestigious
examined
lectures
grammy
ronald
associations
bailey
allan
essays
flute
believing
consultant
proceedings
travelling
1853
kerala
yugoslavia
buddy
methodist
##ith
burial
centres
batman
##nda
discontinued
dock
stockholm
lungs
severely
##nk
citing
manga
##ugh
steal
mumbai
iraqi
robot
celebrity
bride
broadcasts
abolished
joel
overhead
franz
packed
reconnaissance
johann
acknowledged
introduce
handled
doctorate
developments
drinks
alley
palestine
##nis
##aki
proceeded
recover
bradley
grain
patch
afford
infection
nationalist
legendary
##ath
interchange
virtually
gravity
exploration
amber
vital
wishes
powell
doctrine
elbow
screenplay
##bird
contribute
indonesian
pet
creates
##com
enzyme
kylie
discipline
drops
manila
hunger
##ien
layers
suffer
fever
bits
monica
keyboard
manages
##hood
searched
appeals
##bad
testament
grande
reid
##war
beliefs
congo
##ification
##dia
requiring
##via
casey
1849
regret
streak
rape
depends
syrian
sprint
pound
tourists
upcoming
pub
##xi
tense
##els
practiced
echo
nationwide
guild
motorcycle
liz
##zar
chiefs
desired
elena
bye
precious
absorbed
relatives
booth
pianist
##mal
citizenship
exhausted
wilhelm
##ceae
##hed
noting
quarterback
urge
hectares
##gue
holly
##tal
blonde
davies
parked
sustainable
stepping
twentieth
airfield
galaxy
nest
chip
##nell
shaft
paulo
requirement
##zy
paradise
tobacco
renewed
vietnamese
##cker
##ju
suggesting
catching
holmes
enjoying
trips
colt
holder
butterfly
nerve
reformed
cherry
bowling
trailer
carriage
goodbye
appreciate
toy
joshua
interactive
enabled
involve
##kan
collar
determination
bunch
recall
shorts
superintendent
episcopal
frustration
giovanni
nineteenth
laser
privately
circulation
##ovic
armstrong
deals
painful
permit
discrimination
##wi
aires
retiring
cottage
##sta
horizon
ellen
jamaica
ripped
fernando
chapters
playstation
patron
lecturer
navigation
behaviour
genes
georgian
export
solomon
rivals
swift
seventeen
rodriguez
princeton
independently
sox
1847
arguing
entity
casting
hank
criteria
oakland
geographic
milwaukee
reflection
expanding
conquest
dubbed
##tv
halt
brave
brunswick
doi
arched
curtis
divorced
predominantly
somerset
streams
ugly
zoo
horrible
curved
buenos
fierce
dictionary
vector
theological
unions
handful
stability
punjab
segments
##lly
altar
ignoring
gesture
monsters
pastor
##stone
thighs
unexpected
operators
abruptly
coin
compiled
associates
improving
migration
##ose
compact
collegiate
reserved
##urs
quarterfinals
roster
restore
assembled
hurry
oval
##cies
1846
flags
martha
##del
victories
sharply
##rated
argues
deadly
neo
drawings
symbols
performer
##iel
griffin
restrictions
editing
andrews
journals
arabia
compositions
dee
pierce
removing
hindi
casino
runway
civilians
minds
nasa
hotels
##zation
refuge
retain
potentially
conferences
suburban
conducting
##tto
##tions
##tle
descended
massacre
##cal
ammunition
terrain
fork
souls
counts
chelsea
durham
drives
cab
##bank
perth
realizing
palestinian
finn
simpson
##dal
betty
##ule
moreover
particles
cardinals
tent
evaluation
extraordinary
##oid
inscription
##works
wednesday
chloe
maintains
panels
ashley
trucks
##nation
cluster
sunlight
strikes
zhang
##wing
dialect
canon
##ap
tucked
##ws
collecting
##mas
##can
##sville
maker
quoted
evan
franco
buying
cleaning
eva
closet
provision
apollo
clinic
##ez
necessarily
##gle
##ising
venues
flipped
spreading
trustees
checking
authorized
##sco
disappointed
##ado
notion
duration
trumpet
hesitated
topped
brussels
rolls
theoretical
hint
define
aggressive
wash
peaceful
optical
allegedly
mcdonald
strict
copyright
##illa
investors
jam
witnesses
sounding
miranda
michelle
privacy
hugo
harmony
##pp
valid
lynn
glared
nina
headquartered
diving
boarding
gibson
##ncy
albanian
marsh
routine
dealt
enhanced
intelligent
substance
targeted
enlisted
discovers
spinning
observations
pissed
smoking
rebecca
capitol
visa
varied
costume
seemingly
indies
compensation
surgeon
thursday
arsenal
westminster
suburbs
anglican
##ridge
knots
foods
alumni
lighter
fraser
whoever
portal
scandal
##ray
gavin
advised
instructor
flooding
terrorist
##ale
teenage
interim
senses
duck
teen
thesis
abby
eager
overcome
##ile
newport
glenn
rises
shame
##cc
prompted
priority
forgot
bomber
nicolas
protective
cartoon
katherine
breeze
lonely
trusted
henderson
richardson
relax
banner
candy
palms
remarkable
##rio
legends
cricketer
essay
ordained
edmund
rifles
trigger
##uri
##away
sail
alert
1830
audiences
penn
sussex
siblings
pursued
indianapolis
resist
rosa
consequence
succeed
avoided
1845
##ulation
inland
##tie
##nna
counsel
profession
chronicle
hurried
##una
eyebrow
eventual
bleeding
innovative
cure
##dom
committees
accounting
scope
hardy
heather
tenor
gut
herald
codes
tore
scales
wagon
##oo
luxury
prefer
fountain
triangle
bonds
darling
convoy
dried
traced
beings
troy
accidentally
slam
findings
smelled
joey
lawyers
outcome
steep
bosnia
configuration
shifting
toll
brook
performers
lobby
philosophical
construct
shrine
aggregate
boot
cox
phenomenon
savage
insane
solely
reynolds
lifestyle
##ima
nationally
holdings
consideration
enable
edgar
mama
##tein
fights
relegation
chances
atomic
hub
conjunction
awkward
reactions
currency
finale
kumar
underwent
steering
elaborate
gifts
comprising
melissa
veins
reasonable
sunshine
solve
trails
inhabited
elimination
ethics
huh
molly
consent
apartments
layout
marines
##ces
hunters
bulk
##oma
hometown
##wall
##mont
cracked
reads
neighbouring
withdrawn
admission
wingspan
damned
anthology
lancashire
brands
batting
forgive
cuban
awful
##lyn
dimensions
imagination
##ade
dante
##ship
tracking
desperately
goalkeeper
##yne
groaned
workshops
confident
burton
gerald
milton
circus
uncertain
slope
copenhagen
sophia
fog
philosopher
portraits
accent
cycling
varying
gripped
larvae
garrett
specified
scotia
mature
luther
kurt
##kes
aerial
ferdinand
heated
transported
##shan
safely
nonetheless
##orn
##gal
motors
demanding
##sburg
startled
##brook
generate
caps
ghana
stained
mentions
beds
afterward
diary
##bling
utility
##iro
richards
1837
conspiracy
conscious
shining
footsteps
observer
cyprus
urged
loyalty
developer
probability
olive
upgraded
gym
miracle
insects
graves
1844
ourselves
hydrogen
amazon
katie
tickets
poets
##pm
planes
##pan
prevention
witnessed
dense
randy
tang
warehouse
monroe
bang
archived
elderly
investigations
alec
granite
mineral
conflicts
controlling
aboriginal
carlo
##zu
mechanics
stark
rhode
skirt
##berry
bombs
respected
##horn
imposed
limestone
deny
nominee
memphis
grabbing
disabled
##als
amusement
frankfurt
corn
referendum
varies
slowed
disk
firms
unconscious
incredible
clue
sue
##zhou
twist
##cio
joins
idaho
chad
developers
computing
destroyer
mortal
tucker
kingston
choices
carson
whitney
geneva
pretend
dimension
staged
plateau
maya
##une
freestyle
##bc
rovers
hiv
##ids
tristan
classroom
prospect
##hus
honestly
diploma
lied
thermal
auxiliary
feast
unlikely
iata
##tel
morocco
pounding
treasury
lithuania
considerably
1841
dish
1812
geological
matching
stumbled
destroying
marched
brien
advances
cake
nicole
belle
settling
measuring
directing
##mie
tuesday
bassist
capabilities
stunned
fraud
torpedo
##list
##phone
anton
wisdom
surveillance
ruined
##ulate
lawsuit
healthcare
theorem
halls
trend
horizontal
dozens
acquire
lasting
swim
hawk
gorgeous
fees
vicinity
decrease
adoption
tactics
##ography
pakistani
##ole
draws
##hall
willie
burke
heath
algorithm
integral
powder
elliott
brigadier
jackie
tate
varieties
darker
##cho
lately
cigarette
specimens
adds
##ree
##ensis
##inger
exploded
finalist
cia
murders
wilderness
arguments
nicknamed
acceptance
onwards
manufacture
robertson
jets
tampa
enterprises
loudly
composers
nominations
1838
malta
inquiry
automobile
hosting
viii
rays
tilted
grief
museums
strategies
furious
euro
equality
cohen
poison
surrey
wireless
governed
ridiculous
moses
##esh
##room
vanished
##ito
barnes
attract
morrison
istanbul
##iness
absent
rotation
petition
janet
##logical
satisfaction
custody
deliberately
observatory
comedian
surfaces
pinyin
novelist
strictly
canterbury
oslo
monks
embrace
ibm
jealous
photograph
continent
dorothy
marina
excess
holden
allegations
explaining
stack
avoiding
lance
storyline
majesty
poorly
spike
dos
bradford
raven
travis
classics
proven
voltage
pillow
fists
butt
1842
interpreted
##car
1839
gage
telegraph
lens
promising
expelled
casual
collector
zones
##min
silly
nintendo
##kh
##bra
downstairs
chef
suspicious
afl
flies
vacant
uganda
pregnancy
condemned
lutheran
estimates
cheap
decree
saxon
proximity
stripped
idiot
deposits
contrary
presenter
magnus
glacier
offense
edwin
##ori
upright
##long
bolt
##ois
toss
geographical
##izes
environments
delicate
marking
abstract
xavier
nails
windsor
plantation
occurring
equity
saskatchewan
fears
drifted
sequences
vegetation
revolt
##stic
1843
sooner
fusion
opposing
nato
skating
1836
secretly
ruin
lease
##oc
##nne
flora
anxiety
ruby
##ological
##mia
bout
taxi
emmy
frost
rainbow
compounds
foundations
rainfall
assassination
nightmare
dominican
##win
achievements
deserve
orlando
intact
armenia
##nte
calgary
valentine
marion
proclaimed
theodore
bells
courtyard
thigh
gonzalez
console
troop
minimal
monte
everyday
##ence
##if
supporter
terrorism
buck
openly
presbyterian
activists
carpet
##iers
rubbing
uprising
##yi
cute
conceived
legally
##cht
millennium
cello
velocity
rescued
cardiff
1835
rex
concentrate
senators
beard
rendered
glowing
battalions
scouts
competitors
sculptor
catalogue
arctic
raja
bicycle
glancing
lawn
##woman
gentleman
lighthouse
publish
predicted
calculated
##val
variants
##gne
strain
##ui
winston
deceased
##nus
touchdowns
brady
caleb
sinking
echoed
crush
blessed
protagonist
hayes
endangered
magnitude
editors
##tine
estimate
responsibilities
##mel
backup
laying
consumed
sealed
zurich
lovers
frustrated
##eau
ahmed
kicking
treasurer
1832
biblical
refuse
terrified
pump
agrees
genuine
imprisonment
refuses
plymouth
##hen
lou
##nen
tara
trembling
antarctic
learns
##tas
crap
crucial
faction
atop
##borough
wrap
lancaster
odds
hopkins
erik
lyon
##eon
bros
##ode
snap
locality
tips
empress
crowned
acclaimed
chuckled
##ory
clara
sends
mild
towel
##fl
##day
##а
wishing
assuming
interviewed
##bal
##die
interactions
eden
cups
helena
##lf
indie
beck
##fire
batteries
filipino
wizard
parted
##lam
traces
##born
rows
idol
albany
delegates
##ees
##sar
discussions
##ex
notre
instructed
belgrade
highways
suggestion
lauren
possess
orientation
alexandria
abdul
beats
salary
reunion
ludwig
alright
wagner
intimate
pockets
slovenia
hugged
brighton
merchants
cruel
stole
trek
slopes
repairs
enrollment
politically
underlying
promotional
counting
boeing
##bb
isabella
naming
##и
keen
bacteria
listing
separately
belfast
ussr
lithuanian
anybody
ribs
sphere
martinez
cock
embarrassed
proposals
fragments
nationals
##fs
##wski
premises
alpine
matched
freely
bounded
jace
sleeve
##af
gaming
pier
populated
evident
##like
frances
flooded
##dle
frightened
pour
trainer
framed
visitor
challenging
pig
wickets
##fold
infected
email
##pes
arose
##aw
reward
ecuador
oblast
vale
shuttle
##usa
bach
rankings
forbidden
cornwall
accordance
salem
consumers
bruno
fantastic
toes
machinery
resolved
julius
remembering
propaganda
iceland
bombardment
tide
contacts
wives
##rah
concerto
macdonald
albania
implement
daisy
tapped
sudan
helmet
angela
mistress
##lic
crop
sunk
finest
##craft
hostile
##ute
##tsu
boxer
paths
adjusted
habit
ballot
supervision
soprano
##zen
bullets
wicked
sunset
regiments
disappear
lamp
performs
##gia
##oa
rabbit
digging
incidents
entries
##cion
dishes
##oi
introducing
##ati
##fied
freshman
slot
jill
tackles
baroque
backs
##iest
lone
sponsor
destiny
altogether
convert
##aro
consensus
shapes
demonstration
basically
feminist
auction
artifacts
##bing
strongest
halifax
allmusic
mighty
smallest
precise
alexandra
viola
##los
##ille
manuscripts
##illo
dancers
managers
monuments
blades
barracks
springfield
maiden
consolidated
electron
##end
berry
airing
wheat
nobel
inclusion
blair
payments
geography
bee
eleanor
react
##hurst
afc
manitoba
##yu
lineup
fitness
recreational
investments
airborne
disappointment
##dis
edmonton
viewing
##row
renovation
##cast
infant
bankruptcy
roses
aftermath
pavilion
##yer
carpenter
withdrawal
ladder
##hy
discussing
popped
reliable
agreements
rochester
##abad
curves
bombers
rao
reverend
decreased
choosing
stiff
consulting
naples
crawford
tracy
ribbon
cops
##lee
crushed
deciding
unified
teenager
accepting
flagship
explorer
poles
sanchez
inspection
revived
skilled
induced
exchanged
flee
locals
tragedy
swallow
loading
hanna
demonstrate
##ela
salvador
flown
contestants
civilization
##ines
rhodes
fletcher
hector
knocking
considers
##ough
nash
mechanisms
sensed
mentally
walt
unclear
##eus
renovated
madame
##cks
crews
governmental
##hin
undertaken
monkey
##ben
##ato
fatal
armored
copa
caves
governance
grasp
perception
certification
froze
damp
tugged
wyoming
##rg
##ero
newman
##lor
nerves
curiosity
graph
##ami
withdraw
tunnels
dull
meredith
moss
exhibits
neighbors
communicate
accuracy
explored
raiders
republicans
secular
kat
superman
penny
criticised
##tch
freed
conviction
wade
likewise
delegation
gotta
doll
promises
technological
myth
nationality
resolve
convent
##mark
sharon
dig
sip
coordinator
entrepreneur
fold
##dine
capability
councillor
synonym
blown
swan
cursed
1815
jonas
haired
sofa
canvas
keeper
rivalry
##hart
rapper
speedway
swords
postal
maxwell
estonia
potter
recurring
##nn
##ave
errors
##oni
cognitive
1834
##²
claws
nadu
roberto
bce
wrestler
ellie
##ations
infinite
##tia
presumably
finite
staircase
noel
patricia
nacional
##cation
chill
eternal
preventing
prussia
fossil
limbs
##logist
ernst
frog
perez
rene
##ace
pizza
prussian
##ios
##vy
molecules
regulatory
answering
opinions
sworn
lengths
supposedly
hypothesis
upward
habitats
seating
ancestors
drank
yield
synthesis
researcher
modest
##var
mothers
peered
voluntary
homeland
##the
acclaim
##igan
static
valve
luxembourg
alto
carroll
receptor
norton
ambulance
##tian
johnston
catholics
depicting
jointly
elephant
gloria
mentor
badge
ahmad
distinguish
remarked
councils
precisely
allison
advancing
detection
crowded
##10
cooperative
ankle
mercedes
dagger
surrendered
pollution
commit
subway
jeffrey
lesson
sculptures
provider
##fication
membrane
timothy
rectangular
fiscal
heating
teammate
basket
particle
anonymous
deployment
##ple
missiles
courthouse
proportion
shoe
##ller
complaints
forbes
blacks
abandon
remind
sizes
overwhelming
autobiography
natalie
##awa
risks
contestant
countryside
babies
scorer
invaded
enclosed
proceed
hurling
disorders
##cu
reflecting
continuously
cruiser
graduates
freeway
investigated
deserved
maid
blocking
phillip
jorge
shakes
dove
variables
lacked
burden
accompanying
consistently
organizing
provisional
complained
endless
##rm
tubes
juice
georges
krishna
mick
labels
thriller
##uch
laps
arcade
sage
snail
##table
shannon
laurence
seoul
vacation
presenting
hire
churchill
surprisingly
prohibited
savannah
technically
##oli
##lessly
testimony
suited
speeds
toys
romans
mlb
flowering
measurement
talented
kay
settings
charleston
expectations
shattered
achieving
triumph
ceremonies
portsmouth
lanes
mandatory
stretching
cologne
realizes
seventy
cornell
careers
webb
##ulating
americas
budapest
suspicion
##ison
conrad
##hai
sterling
jessie
rector
##az
1831
transform
organize
loans
christine
volcanic
warrant
slender
summers
subfamily
newer
danced
dynamics
rhine
proceeds
heinrich
gastropod
commands
sings
facilitate
easter
positioned
responses
expense
fruits
yanked
imported
25th
velvet
primitive
tribune
baldwin
neighbourhood
donna
rip
hay
##uro
1814
espn
welcomed
##aria
qualifier
glare
highland
timing
##cted
shells
eased
geometry
louder
exciting
slovakia
##sion
##iz
##lot
savings
prairie
##ques
marching
rafael
tonnes
##lled
curtain
preceding
shy
heal
greene
worthy
##pot
detachment
bury
sherman
##eck
reinforced
seeks
bottles
contracted
duchess
outfit
walsh
##sc
mickey
##ase
geoffrey
archer
squeeze
dawson
eliminate
invention
##enberg
neal
##eth
dealer
coral
maple
retire
polo
simplified
##ht
1833
hid
watts
backwards
jules
##oke
genesis
frames
rebounds
burma
woodland
moist
santos
whispers
drained
subspecies
##aa
streaming
ulster
burnt
correspondence
maternal
gerard
denis
stealing
##load
genius
duchy
##oria
inaugurated
momentum
suits
placement
sovereign
clause
thames
##hara
confederation
reservation
sketch
yankees
lets
rotten
charm
verses
ultra
commercially
dot
salon
citation
adopt
winnipeg
mist
allocated
cairo
##boy
jenkins
interference
objectives
##wind
1820
portfolio
armoured
sectors
##eh
initiatives
##world
integrity
exercises
robe
tap
gazed
##tones
distracted
rulers
favorable
jerome
tended
cart
factories
##eri
diplomat
valued
gravel
charitable
##try
calvin
exploring
shepherd
terrace
pupil
##ural
reflects
ups
##rch
governors
shelf
depths
##nberg
trailed
crest
tackle
##nian
##ats
hatred
##kai
clare
makers
ethiopia
longtime
detected
embedded
lacking
slapped
rely
thomson
anticipation
morton
successive
agnes
screenwriter
straightened
philippe
playwright
haunted
licence
iris
intentions
sutton
logical
correctly
##weight
branded
licked
tipped
silva
ricky
narrator
requests
##ents
greeted
supernatural
cow
##wald
lung
refusing
employer
strait
gaelic
liner
##piece
zoe
sabha
##mba
driveway
harvest
prints
bates
reluctantly
threshold
algebra
wherever
coupled
assumption
picks
##air
designers
raids
gentlemen
##ean
roller
blowing
leipzig
locks
screw
dressing
strand
##lings
scar
dwarf
depicts
##nu
nods
##mine
differ
boris
##eur
yuan
flip
##gie
mob
invested
questioning
applying
##ture
shout
##sel
gameplay
blamed
illustrations
bothered
weakness
rehabilitation
##of
##zes
envelope
rumors
miners
leicester
subtle
kerry
##ico
ferguson
##fu
premiership
##cat
bengali
prof
catches
remnants
dana
##rily
shouting
presidents
baltic
ought
ghosts
dances
sailors
shirley
fancy
dominic
##bie
madonna
##rick
bark
buttons
gymnasium
ashes
liver
toby
oath
providence
doyle
evangelical
nixon
cement
carnegie
embarked
hatch
surroundings
guarantee
needing
pirate
essence
##bee
crane
hammond
projected
immune
percy
twelfth
##ult
regent
doctoral
damon
mikhail
##ichi
critically
elect
realised
abortion
acute
screening
mythology
steadily
##fc
frown
nottingham
kirk
minneapolis
##rra
module
algeria
nautical
encounters
surprising
statues
availability
shirts
pie
alma
brows
munster
mack
soup
crater
tornado
sanskrit
cedar
explosive
bordered
dixon
planets
stamp
exam
happily
##bble
carriers
kidnapped
##vis
accommodation
emigrated
##met
knockout
correspondent
violation
profits
peaks
specimen
agenda
ancestry
pottery
spelling
equations
obtaining
linking
1825
debris
asylum
##20
buddhism
teddy
##ants
gazette
##nger
##sse
dental
eligibility
utc
fathers
averaged
zimbabwe
francesco
coloured
hissed
translator
lynch
mandate
humanities
mackenzie
uniforms
##iana
##gio
asset
mhz
fitting
samantha
genera
beloved
shark
riot
entities
expressions
indo
carmen
slipping
owing
abbot
neighbor
sidney
##av
rats
recommendations
encouraging
squadrons
anticipated
commanders
conquered
##oto
donations
diagnosed
##mond
divide
##iva
guessed
vernon
auditorium
revelation
conversations
##kers
##power
herzegovina
dash
alike
protested
lateral
herman
accredited
##gent
freeman
fiji
crow
crimson
##rine
livestock
##pped
humanitarian
bored
oz
whip
##lene
##ali
legitimate
alter
grinning
spelled
anxious
oriental
wesley
##nin
##hole
carnival
controller
detect
##ssa
bowed
educator
kosovo
macedonia
##sin
occupy
mastering
stephanie
janeiro
para
unaware
nurses
noon
hopefully
ranger
combine
sociology
polar
rica
##eer
neill
##sman
holocaust
##ip
doubled
lust
1828
decent
cooling
unveiled
##card
1829
nsw
homer
chapman
meyer
##gin
dive
mae
reagan
expertise
##gled
darwin
brooke
sided
prosecution
investigating
comprised
petroleum
genres
reluctant
differently
trilogy
johns
vegetables
corpse
highlighted
lounge
pension
unsuccessfully
elegant
aided
ivory
beatles
amelia
cain
dubai
sunny
immigrant
babe
##nder
underwater
pepper
combining
mumbled
atlas
horns
accessed
ballad
physicians
homeless
gestured
freak
louisville
corporations
patriots
prizes
rational
warn
modes
decorative
overnight
troubled
phantom
##ort
monarch
sheer
##dorf
generals
guidelines
organs
addresses
##zon
enhance
curling
parishes
cord
##kie
caesar
deutsche
bavaria
##bia
coleman
cyclone
##eria
bacon
petty
##yama
##old
hampton
diagnosis
1824
throws
complexity
rita
disputed
##₃
pablo
##sch
marketed
trafficking
##ulus
examine
plague
formats
##oh
vault
faithful
##bourne
webster
##ox
highlights
##ient
##ann
phones
vacuum
sandwich
modeling
##gated
bolivia
clergy
qualities
isabel
##nas
##ars
wears
screams
reunited
annoyed
##ancy
##rate
differential
transmitter
tattoo
container
poker
##och
excessive
resides
cowboys
##tum
augustus
trash
providers
statute
retreated
balcony
reversed
storey
preceded
masses
leap
laughs
neighborhoods
wards
schemes
falcon
santo
battlefield
ronnie
thread
lesbian
venus
##dian
beg
sandstone
daylight
punched
gwen
analog
stroked
wwe
acceptable
measurements
toxic
##kel
adequate
surgical
economist
parameters
varsity
##sberg
quantity
##chy
##rton
countess
generating
precision
diamonds
expressway
##ı
1821
uruguay
talents
galleries
expenses
scanned
colleague
outlets
ryder
lucien
##ila
paramount
##bon
syracuse
dim
fangs
gown
sweep
##sie
toyota
missionaries
websites
##nsis
sentences
adviser
trademark
spells
##plane
patience
starter
slim
##borg
toe
incredibly
shoots
elliot
nobility
##wyn
cowboy
endorsed
gardner
tendency
persuaded
organisms
emissions
kazakhstan
amused
boring
chips
themed
##hand
llc
constantinople
chasing
systematic
guatemala
borrowed
erin
carey
##hard
highlands
struggles
1810
##ifying
##ced
wong
exceptions
develops
enlarged
kindergarten
castro
##ern
##rina
leigh
zombie
juvenile
##most
consul
##nar
sailor
hyde
clarence
intensive
pinned
nasty
useless
jung
clayton
stuffed
exceptional
apostolic
transactions
##dge
exempt
swinging
cove
religions
##ash
shields
dairy
bypass
pursuing
joyce
bombay
chassis
southampton
chat
interact
redesignated
##pen
nascar
pray
salmon
rigid
regained
malaysian
grim
publicity
constituted
capturing
toilet
delegate
purely
tray
drift
loosely
striker
weakened
trinidad
mitch
itv
defines
transmitted
scarlet
nodding
fitzgerald
narrowly
tooth
standings
virtue
##₁
##wara
##cting
chateau
gloves
lid
##nel
hurting
conservatory
##pel
sinclair
reopened
sympathy
nigerian
strode
advocated
optional
chronic
discharge
##rc
suck
compatible
laurel
stella
fails
wage
dodge
informal
sorts
levi
buddha
villagers
##aka
chronicles
heavier
summoned
gateway
eleventh
jewelry
translations
accordingly
seas
##ency
fiber
pyramid
cubic
dragging
##ista
caring
##ops
contacted
lunar
##dt
kai
lisbon
patted
1826
sacramento
theft
madagascar
subtropical
disputes
holidays
piper
willow
mare
cane
itunes
newfoundland
benny
companions
dong
raj
observe
roar
charming
plaque
tibetan
fossils
enacted
manning
bubble
tina
tanzania
##eda
##hir
funk
swamp
deputies
cloak
ufc
scenario
scratch
metals
anthem
guru
engaging
specially
##boat
dialects
nineteen
cecil
duet
disability
messenger
unofficial
##lies
defunct
eds
moonlight
drainage
surname
puzzle
honda
switching
conservatives
mammals
knox
broadcaster
sidewalk
cope
##ried
benson
princes
peterson
##sal
bedford
sharks
wreck
alberto
gasp
archaeology
lgbt
teaches
securities
madness
compromise
waving
coordination
davidson
visions
leased
possibilities
eighty
fernandez
enthusiasm
assassin
sponsorship
reviewer
kingdoms
estonian
laboratories
##fy
##nal
applies
verb
celebrations
##zzo
rowing
lightweight
sadness
submit
mvp
balanced
dude
##vas
explicitly
metric
magnificent
mound
brett
mohammad
mistakes
irregular
##hing
##ass
sanders
betrayed
shipped
surge
##enburg
reporters
termed
georg
pity
verbal
bulls
abbreviated
enabling
appealed
##are
##atic
sicily
sting
heel
sweetheart
bart
spacecraft
brutal
monarchy
##tter
aberdeen
cameo
diane
##ub
survivor
clyde
##aries
complaint
##makers
clarinet
delicious
chilean
karnataka
coordinates
1818
panties
##rst
pretending
dramatically
kiev
bella
tends
distances
catalog
launching
instances
telecommunications
portable
lindsay
vatican
##eim
angles
aliens
marker
stint
screens
bolton
##rne
judy
wool
benedict
plasma
europa
spark
imaging
filmmaker
swiftly
##een
contributor
##nor
opted
stamps
apologize
financing
butter
gideon
sophisticated
alignment
avery
chemicals
yearly
speculation
prominence
professionally
##ils
immortal
institutional
inception
wrists
identifying
tribunal
derives
gains
##wo
papal
preference
linguistic
vince
operative
brewery
##ont
unemployment
boyd
##ured
##outs
albeit
prophet
1813
##rr
##face
##rad
quarterly
asteroid
cleaned
radius
temper
##llen
telugu
jerk
viscount
menu
##ote
glimpse
##aya
yacht
hawaiian
baden
##rl
laptop
readily
##gu
monetary
offshore
scots
watches
##yang
##arian
upgrade
needle
xbox
lea
encyclopedia
flank
fingertips
##pus
delight
teachings
confirm
roth
beaches
midway
winters
##iah
teasing
daytime
beverly
gambling
bonnie
##backs
regulated
clement
hermann
tricks
knot
##shing
##uring
##vre
detached
ecological
owed
specialty
byron
inventor
bats
stays
screened
unesco
midland
trim
affection
##ander
##rry
jess
thoroughly
feedback
##uma
chennai
strained
heartbeat
wrapping
overtime
pleaded
##sworth
leisure
oclc
##tate
##ele
feathers
angelo
thirds
nuts
surveys
clever
gill
commentator
##dos
darren
rides
gibraltar
##nc
##mu
dissolution
dedication
shin
meals
saddle
elvis
reds
chaired
taller
appreciation
functioning
niece
favored
advocacy
robbie
criminals
suffolk
yugoslav
passport
constable
congressman
hastings
vera
##rov
consecrated
sparks
ecclesiastical
confined
##ovich
muller
floyd
nora
1822
paved
1827
cumberland
ned
saga
spiral
##flow
appreciated
collaborative
treating
similarities
feminine
finishes
##ib
jade
import
##nse
##hot
champagne
mice
securing
celebrities
helsinki
attributes
##gos
cousins
phases
ache
lucia
gandhi
submission
vicar
spear
shine
tasmania
biting
detention
constitute
tighter
seasonal
##gus
terrestrial
matthews
##oka
effectiveness
parody
philharmonic
##onic
1816
strangers
encoded
consortium
guaranteed
regards
shifts
tortured
collision
supervisor
inform
broader
insight
theaters
armour
emeritus
blink
incorporates
mapping
##50
##ein
handball
flexible
##nta
substantially
generous
thief
##own
carr
loses
1793
prose
ucla
romeo
generic
metallic
realization
damages
mk
commissioners
zach
default
##ther
helicopters
lengthy
stems
spa
partnered
spectators
rogue
indication
penalties
teresa
1801
##tric
dalton
##wich
irving
photographic
##vey
dell
deaf
peters
excluded
unsure
##vable
patterson
crawled
##zio
resided
whipped
latvia
slower
ecole
pipes
employers
maharashtra
comparable
textile
pageant
##gel
alphabet
binary
irrigation
chartered
choked
antoine
offs
waking
supplement
##wen
quantities
demolition
regain
locate
urdu
folks
##mc
scary
andreas
whites
##ava
classrooms
mw
aesthetic
publishes
valleys
guides
cubs
johannes
bryant
conventions
affecting
##itt
drain
awesome
isolation
prosecutor
ambitious
apology
captive
downs
atmospheric
lorenzo
aisle
beef
foul
##onia
kidding
composite
disturbed
illusion
natives
##ffer
emi
rockets
riverside
wartime
painters
adolf
melted
##ail
uncertainty
simulation
hawks
progressed
meantime
builder
spray
breach
unhappy
regina
russians
##urg
determining
##tation
tram
1806
##quin
aging
##12
1823
garion
rented
mister
diaz
terminated
clip
1817
depend
nervously
disco
owe
defenders
shiva
notorious
disbelief
shiny
worcester
##gation
##yr
trailing
undertook
islander
belarus
limitations
watershed
fuller
overlooking
utilized
raphael
1819
synthetic
breakdown
klein
##nate
moaned
memoir
lamb
practicing
##erly
cellular
arrows
exotic
##graphy
witches
charted
hut
hierarchy
subdivision
freshwater
giuseppe
aloud
reyes
qatar
marty
sideways
utterly
sexually
jude
prayers
mccarthy
softball
blend
damien
##gging
##metric
wholly
erupted
lebanese
negro
revenues
tasted
comparative
teamed
transaction
labeled
maori
sovereignty
parkway
trauma
gran
malay
advancement
descendant
buzz
salvation
inventory
symbolic
##making
antarctica
mps
##gas
##bro
mohammed
myanmar
holt
submarines
tones
##lman
locker
patriarch
bangkok
emerson
remarks
predators
afghan
confession
norwich
rental
emerge
advantages
##zel
rca
##hold
shortened
storms
aidan
##matic
autonomy
compliance
##quet
dudley
atp
##osis
1803
motto
documentation
summary
professors
spectacular
christina
archdiocese
flashing
innocence
remake
##dell
psychic
reef
scare
employ
sticks
meg
gus
leans
##ude
accompany
bergen
tomas
##iko
doom
wages
pools
##nch
##bes
breasts
scholarly
alison
outline
brittany
breakthrough
willis
realistic
##cut
##boro
competitor
##stan
pike
picnic
designing
commercials
washing
villain
skiing
costumes
auburn
halted
executives
##hat
logistics
cycles
vowel
applicable
barrett
exclaimed
eurovision
eternity
ramon
##umi
##lls
modifications
sweeping
disgust
##uck
torch
aviv
ensuring
rude
dusty
sonic
donovan
outskirts
pathway
##band
##gun
##lines
disciplines
acids
cadet
paired
##40
sketches
##sive
marriages
##⁺
folding
peers
slovak
implies
admired
##beck
1880s
leopold
instinct
attained
weston
megan
horace
##ination
dorsal
ingredients
evolutionary
##its
complications
deity
lethal
brushing
levy
deserted
institutes
posthumously
delivering
telescope
coronation
motivated
rapids
luc
flicked
pays
volcano
tanner
weighed
##nica
crowds
frankie
gifted
addressing
granddaughter
winding
##rna
constantine
gomez
##front
landscapes
rudolf
anthropology
slate
werewolf
##lio
astronomy
circa
rouge
dreaming
sack
knelt
drowned
naomi
prolific
tracked
freezing
herb
##dium
agony
randall
twisting
wendy
deposit
touches
vein
wheeler
##bbled
##bor
batted
retaining
tire
presently
compare
specification
daemon
nigel
##grave
merry
recommendation
czechoslovakia
sandra
roma
##sts
lambert
inheritance
sheikh
winchester
cries
examining
##yle
comeback
cuisine
nave
##iv
retrieve
tomatoes
barker
polished
defining
irene
lantern
personalities
begging
swore
1809
##gic
omaha
brotherhood
##rley
haiti
##ots
exeter
##ete
##zia
steele
dumb
pearson
surveyed
elisabeth
trends
##ef
fritz
##rf
premium
bugs
fraction
calmly
viking
##birds
tug
inserted
unusually
##ield
confronted
distress
crashing
brent
turks
resign
##olo
cambodia
gabe
sauce
##kal
evelyn
extant
clusters
quarry
teenagers
luna
##lers
##ister
affiliation
drill
##ashi
panthers
scenic
libya
anita
strengthen
inscriptions
##cated
lace
sued
judith
riots
##uted
mint
##eta
preparations
midst
dub
challenger
##vich
mock
displaced
wicket
breaths
enables
schmidt
analyst
##lum
highlight
automotive
axe
josef
newark
sufficiently
resembles
50th
##pal
flushed
mum
traits
##ante
commodore
incomplete
warming
titular
ceremonial
ethical
celebrating
eighteenth
cao
lima
medalist
mobility
strips
snakes
##city
miniature
zagreb
barton
escapes
umbrella
automated
doubted
differs
cooled
georgetown
dresden
cooked
fade
wyatt
rna
jacobs
carlton
abundant
stereo
boost
madras
inning
##hia
spur
malayalam
begged
osaka
groan
escaping
charging
dose
vista
##aj
bud
papa
communists
advocates
edged
##cent
resemble
peaking
necklace
fried
montenegro
saxony
goose
glances
stuttgart
curator
recruit
grocery
sympathetic
##tting
##fort
lotus
randolph
ancestor
##rand
succeeding
jupiter
1798
macedonian
##heads
hiking
1808
handing
fischer
##itive
garbage
##pies
prone
singular
papua
inclined
attractions
italia
pouring
motioned
grandma
garnered
jacksonville
corp
ego
ringing
aluminum
##hausen
ordering
##foot
drawer
traders
synagogue
##play
##kawa
resistant
wandering
fragile
fiona
teased
hardcore
soaked
jubilee
decisive
exposition
mercer
poster
valencia
hale
kuwait
1811
##ises
##wr
##eed
tavern
gamma
johan
##uer
airways
amino
gil
##ury
vocational
domains
torres
##sp
generator
folklore
outcomes
##keeper
canberra
shooter
beams
confrontation
##lling
##gram
feb
aligned
forestry
pipeline
jax
motorway
conception
decay
##tos
coffin
##cott
stalin
1805
escorted
minded
##nam
sitcom
purchasing
twilight
veronica
additions
passive
tensions
straw
frequencies
1804
refugee
cultivation
##iate
christie
clary
bulletin
crept
disposal
##rich
##zong
processor
crescent
##rol
bmw
emphasized
whale
nazis
aurora
##eng
dwelling
hauled
sponsors
toledo
mega
ideology
theatres
tessa
cerambycidae
saves
turtle
cone
suspects
kara
rusty
yelling
greeks
mozart
shades
cocked
participant
##tro
shire
spit
freeze
necessity
##cos
inmates
nielsen
councillors
loaned
uncommon
omar
peasants
botanical
offspring
daniels
formations
jokes
1794
pioneers
sigma
licensing
##sus
wheelchair
polite
1807
liquor
pratt
trustee
##uta
forewings
balloon
##zz
kilometre
camping
explicit
casually
shawn
foolish
teammates
hassan
carrie
judged
satisfy
vanessa
knives
selective
cnn
flowed
##lice
eclipse
stressed
eliza
mathematician
cease
cultivated
##roy
commissions
browns
##ania
destroyers
sheridan
meadow
##rius
minerals
##cial
downstream
clash
gram
memoirs
ventures
baha
seymour
archie
midlands
edith
fare
flynn
invite
canceled
tiles
stabbed
boulder
incorporate
amended
camden
facial
mollusk
unreleased
descriptions
yoga
grabs
raises
ramp
shiver
##rose
coined
pioneering
tunes
qing
warwick
tops
melanie
giles
##rous
wandered
##inal
annexed
30th
unnamed
##ished
organizational
airplane
normandy
stoke
whistle
blessing
violations
chased
holders
shotgun
##ctic
outlet
reactor
##vik
tires
tearing
shores
fortified
mascot
constituencies
columnist
productive
tibet
##rta
lineage
hooked
oct
tapes
judging
cody
##gger
hansen
kashmir
triggered
##eva
solved
cliffs
##tree
resisted
anatomy
protesters
implied
##iga
injection
mattress
excluding
##mbo
defenses
helpless
devotion
##elli
growl
liberals
weber
phenomena
atoms
plug
##iff
mortality
apprentice
howe
convincing
aaa
swimmer
barber
leone
promptly
sodium
nowadays
arise
##oning
gloucester
corrected
dignity
norm
erie
##ders
elders
evacuated
sylvia
compression
##yar
hartford
backpack
reasoning
accepts
24th
wipe
millimetres
marcel
##oda
dodgers
albion
1790
overwhelmed
aerospace
oaks
1795
showcase
acknowledge
recovering
nolan
ashe
hurts
geology
fashioned
disappearance
farewell
swollen
shrug
marquis
wimbledon
rue
1792
commemorate
reduces
experiencing
inevitable
calcutta
##court
murderer
sticking
fisheries
imagery
bloom
brake
##inus
gustav
hesitation
memorable
viral
beans
accidents
tunisia
antenna
spilled
consort
treatments
aye
perimeter
##gard
donation
hostage
migrated
banker
addiction
apex
lil
trout
##ously
conscience
##nova
rams
sands
genome
passionate
troubles
##lets
##set
amid
##ibility
##ret
higgins
exceed
vikings
##vie
payne
##zan
muscular
##ste
defendant
sucking
##wal
ibrahim
fuselage
claudia
vfl
europeans
snails
interval
##garh
preparatory
statewide
tasked
lacrosse
viktor
##lation
angola
##hra
flint
implications
employs
teens
patrons
stall
weekends
barriers
scrambled
nucleus
tehran
jenna
parsons
lifelong
robots
displacement
##bles
precipitation
##gt
knuckles
clutched
1802
marrying
ecology
marx
accusations
declare
scars
kolkata
meadows
bermuda
skeleton
finalists
vintage
crawl
coordinate
affects
subjected
orchestral
mistaken
##tc
mirrors
dipped
relied
arches
candle
##nick
incorporating
wildly
fond
basilica
owl
fringe
rituals
whispering
stirred
feud
tertiary
slick
goat
honorable
whereby
skip
ricardo
stripes
parachute
adjoining
submerged
synthesizer
##gren
intend
positively
ninety
phi
beaver
partition
fellows
alexis
prohibition
carlisle
bizarre
fraternity
##bre
doubts
icy
cbc
aquatic
sneak
sonny
combines
airports
crude
supervised
spatial
merge
alfonso
##bic
corrupt
scan
undergo
##ams
disabilities
colombian
comparing
dolphins
perkins
##lish
reprinted
unanimous
bounced
hairs
underworld
midwest
semester
bucket
paperback
miniseries
coventry
demise
##leigh
demonstrations
sensor
rotating
##hler
arrange
soils
##idge
hyderabad
labs
##dr
brakes
grandchildren
##nde
negotiated
rover
ferrari
continuation
directorate
augusta
stevenson
counterpart
gore
##rda
nursery
rican
collectively
broadly
pastoral
repertoire
asserted
discovering
nordic
styled
fiba
cunningham
harley
middlesex
survives
tumor
tempo
zack
aiming
lok
urgent
##rade
##nto
devils
##ement
contractor
turin
##wl
##ool
bliss
repaired
simmons
moan
astronomical
negotiate
lyric
1890s
lara
bred
clad
angus
pbs
##ience
engineered
posed
##lk
hernandez
possessions
elbows
psychiatric
strokes
confluence
electorate
lifts
campuses
lava
alps
##ep
##ution
##date
physicist
woody
##page
##ographic
##itis
juliet
reformation
sparhawk
complement
suppressed
jewel
##½
floated
##kas
continuity
sadly
##ische
inability
melting
scanning
paula
flour
judaism
safer
vague
##lm
solving
curb
##stown
financially
gable
bees
expired
miserable
cassidy
dominion
1789
cupped
robbery
facto
amos
warden
resume
tallest
marvin
pounded
usd
declaring
gasoline
##aux
darkened
sophomore
##mere
erection
gossip
televised
risen
dial
##eu
pillars
##link
passages
profound
##tina
arabian
ashton
silicon
nail
##ead
##lated
##wer
##hardt
fleming
firearms
ducked
circuits
blows
waterloo
titans
##lina
atom
fireplace
cheshire
financed
activation
algorithms
##zzi
constituent
catcher
cherokee
partnerships
sexuality
platoon
tragic
vivian
guarded
whiskey
meditation
poetic
##late
##nga
##ake
porto
listeners
dominance
kendra
mona
chandler
factions
22nd
salisbury
attitudes
derivative
##ido
##haus
intake
paced
javier
illustrator
barrels
bias
cockpit
burnett
dreamed
ensuing
##anda
receptors
someday
hawkins
mattered
##lal
slavic
1799
jesuit
cameroon
wasted
tai
wax
lowering
victorious
freaking
outright
hancock
librarian
sensing
bald
calcium
myers
tablet
announcing
barack
shipyard
pharmaceutical
##uan
greenwich
flush
medley
patches
wolfgang
speeches
acquiring
exams
nikolai
##gg
hayden
kannada
##type
reilly
##pt
waitress
abdomen
devastated
capped
pseudonym
pharmacy
fulfill
paraguay
1796
clicked
##trom
archipelago
syndicated
##hman
lumber
orgasm
rejection
clifford
lorraine
advent
mafia
rodney
brock
##ght
##used
##elia
cassette
chamberlain
despair
mongolia
sensors
developmental
upstream
##eg
##alis
spanning
trombone
basque
seeded
interred
renewable
rhys
leapt
revision
molecule
##ages
chord
vicious
nord
shivered
23rd
arlington
debts
corpus
sunrise
bays
blackburn
centimetres
##uded
shuddered
gm
strangely
gripping
cartoons
isabelle
orbital
##ppa
seals
proving
##lton
refusal
strengthened
bust
assisting
baghdad
batsman
portrayal
mara
pushes
spears
##cock
reside
nathaniel
brennan
1776
confirmation
caucus
##worthy
markings
yemen
nobles
lazy
viewer
catalan
encompasses
sawyer
##fall
sparked
substances
patents
braves
arranger
evacuation
sergio
persuade
dover
tolerance
penguin
cum
jockey
insufficient
townships
occupying
declining
plural
processed
projection
puppet
flanders
introduces
liability
##yon
gymnastics
antwerp
taipei
hobart
candles
jeep
wes
observers
chaplain
bundle
glorious
##hine
hazel
flung
excavations
dumped
stares
bangalore
triangular
icelandic
intervals
expressing
turbine
##vers
songwriting
crafts
##igo
jasmine
ditch
rite
##ways
entertaining
comply
sorrow
wrestlers
basel
emirates
marian
rivera
helpful
##some
caution
downward
networking
##atory
##tered
darted
genocide
emergence
replies
specializing
spokesman
convenient
unlocked
fading
augustine
concentrations
resemblance
elijah
investigator
andhra
##uda
promotes
bean
##rrell
fleeing
simone
announcer
##ame
##bby
lydia
weaver
residency
modification
##fest
stretches
##ast
alternatively
nat
lowe
lacks
##ented
pam
tile
concealed
inferior
abdullah
residences
tissues
vengeance
##ided
moisture
peculiar
groove
zip
bologna
jennings
ninja
oversaw
zombies
pumping
batch
livingston
emerald
installations
1797
peel
nitrogen
rama
##fying
##star
schooling
strands
responding
werner
##ost
lime
casa
accurately
targeting
##rod
underway
##uru
hemisphere
lester
##yard
occupies
2d
griffith
angrily
reorganized
##owing
courtney
deposited
##dd
##30
estadio
##ifies
dunn
exiled
##ying
checks
##combe
##о
##fly
successes
unexpectedly
blu
assessed
##flower
##ه
observing
sacked
spiders
kn
##tail
nodes
prosperity
audrey
divisional
broncos
tangled
adjust
feeds
erosion
paolo
surf
directory
snatched
humid
admiralty
screwed
reddish
##nese
modules
trench
lamps
bind
leah
bucks
competes
##nz
##form
transcription
##uc
isles
violently
clutching
pga
cyclist
inflation
flats
ragged
unnecessary
##hian
stubborn
coordinated
harriet
baba
disqualified
insect
wolfe
##fies
reinforcements
rocked
duel
winked
embraced
bricks
##raj
hiatus
defeats
pending
brightly
jealousy
##xton
##hm
##uki
lena
gdp
colorful
##dley
stein
kidney
##shu
underwear
wanderers
##haw
##icus
guardians
m³
roared
habits
##wise
permits
gp
uranium
punished
disguise
bundesliga
elise
dundee
erotic
partisan
collectors
individually
rendering
behavioral
bucharest
hare
valerie
corporal
nutrition
proportional
##isa
immense
##kis
pavement
##zie
##eld
sutherland
crouched
1775
##lp
suzuki
trades
endurance
operas
crosby
prayed
priory
rory
socially
##urn
gujarat
##pu
walton
cube
pasha
privilege
lennon
floods
thorne
waterfall
nipple
scouting
approve
##lov
minorities
voter
dwight
extensions
assure
ballroom
slap
dripping
privileges
rejoined
confessed
demonstrating
patriotic
yell
investor
##uth
pagan
slumped
squares
##cle
##kins
confront
embarrassment
##aid
aston
urging
sweater
starr
yuri
brains
williamson
commuter
mortar
structured
selfish
exports
##jon
cds
##him
unfinished
##rre
mortgage
destinations
##nagar
canoe
solitary
buchanan
delays
magistrate
fk
##pling
motivation
##lier
##vier
recruiting
assess
##mouth
malik
antique
1791
pius
rahman
reich
tub
zhou
smashed
airs
galway
xii
conditioning
honduras
discharged
dexter
##pf
lionel
debates
lemon
tiffany
volunteered
dioxide
procession
devi
sic
tremendous
advertisements
colts
transferring
verdict
hanover
decommissioned
utter
relate
pac
racism
##top
beacon
limp
similarity
terra
occurrence
##how
becky
capt
updates
armament
richie
pal
##graph
halloween
mayo
##ssen
##bone
cara
serena
fcc
dolls
obligations
##dling
violated
lafayette
jakarta
exploitation
##ime
infamous
iconic
##lah
##park
kitty
moody
reginald
dread
spill
crystals
olivier
modeled
bluff
equilibrium
separating
notices
ordnance
extinction
onset
cosmic
attachment
sammy
expose
privy
anchored
##bil
abbott
admits
bending
baritone
emmanuel
policeman
vaughan
winged
climax
dresses
denny
polytechnic
mohamed
burmese
authentic
nikki
genetics
grandparents
homestead
gaza
postponed
metacritic
una
##sby
##bat
unstable
dissertation
##rial
##cian
curls
obscure
uncovered
bronx
praying
disappearing
##hoe
prehistoric
coke
turret
mutations
nonprofit
pits
monaco
##ي
##usion
prominently
dispatched
podium
##mir
uci
##uation
fortifications
birthplace
kendall
##lby
##oll
preacher
goodman
##rman
persistent
##ott
countless
jaime
recorder
lexington
persecution
jumps
renewal
wagons
##11
crushing
##holder
decorations
##lake
abundance
wrath
laundry
£1
garde
##rp
jeanne
beetles
peasant
##sl
splitting
caste
sergei
##rer
##ema
scripts
##ively
rub
satellites
##vor
inscribed
verlag
scrapped
gale
packages
chick
potato
slogan
kathleen
arabs
##culture
counterparts
reminiscent
choral
##tead
rand
retains
bushes
dane
accomplish
courtesy
closes
##oth
slaughter
hague
krakow
lawson
tailed
elias
ginger
##ttes
canopy
betrayal
rebuilding
turf
##hof
frowning
allegiance
brigades
kicks
rebuild
polls
alias
nationalism
td
rowan
audition
bowie
fortunately
recognizes
harp
dillon
horrified
##oro
renault
##tics
ropes
##α
presumed
rewarded
infrared
wiping
accelerated
illustration
##rid
presses
practitioners
badminton
##iard
detained
##tera
recognizing
relates
misery
##sies
##tly
reproduction
piercing
potatoes
thornton
esther
manners
hbo
##aan
ours
bullshit
ernie
perennial
sensitivity
illuminated
rupert
##jin
##iss
##ear
rfc
nassau
##dock
staggered
socialism
##haven
appointments
nonsense
prestige
sharma
haul
##tical
solidarity
gps
##ook
##rata
igor
pedestrian
##uit
baxter
tenants
wires
medication
unlimited
guiding
impacts
diabetes
##rama
sasha
pas
clive
extraction
continually
constraints
##bilities
sonata
hunted
sixteenth
planting
quote
mayer
pretended
abs
spat
##hua
ceramic
##cci
curtains
pigs
pitching
##dad
latvian
sore
dayton
##sted
##qi
patrols
slice
playground
##nted
shone
stool
apparatus
inadequate
mates
treason
##ija
desires
##liga
##croft
somalia
laurent
mir
leonardo
oracle
grape
obliged
chevrolet
thirteenth
stunning
enthusiastic
##ede
accounted
concludes
currents
basil
##kovic
drought
##rica
mai
##aire
shove
posting
##shed
pilgrimage
humorous
packing
fry
pencil
wines
smells
marilyn
aching
newest
clung
neighbours
sanctioned
##pie
mug
##stock
drowning
##mma
hydraulic
##vil
hiring
reminder
lilly
investigators
##ncies
sour
##eous
compulsory
packet
##rion
##graphic
##elle
cannes
##inate
depressed
##rit
heroic
importantly
theresa
##tled
conway
saturn
marginal
rae
##xia
corresponds
royce
pact
jasper
explosives
packaging
aluminium
##ttered
denotes
rhythmic
spans
assignments
hereditary
outlined
originating
sundays
reissued
greeting
beatrice
##dic
pillar
marcos
plots
handbook
alcoholic
judiciary
avant
slides
extract
masculine
blur
##eum
##force
homage
trembled
owens
hymn
trey
omega
signaling
socks
accumulated
reacted
attic
theo
lining
angie
distraction
primera
talbot
##key
creativity
billed
##hey
deacon
eduardo
identifies
proposition
dizzy
gunner
hogan
##yam
##pping
##hol
##chan
jensen
reconstructed
##berger
clearance
darius
##nier
abe
harlem
plea
dei
circled
emotionally
notation
fascist
neville
exceeded
upwards
viable
ducks
##fo
workforce
racer
limiting
shri
##lson
possesses
kerr
moths
devastating
laden
disturbing
locking
##cture
fearing
accreditation
flavor
aide
1870s
mountainous
##baum
melt
##ures
motel
texture
servers
soda
##mb
herd
##nium
erect
puzzled
hum
peggy
examinations
gould
testified
geoff
devised
sacks
##law
denial
posters
grunted
cesar
tutor
gerry
offerings
byrne
falcons
combinations
incoming
pardon
rocking
26th
avengers
flared
mankind
seller
uttar
loch
nadia
stroking
exposing
##hd
fertile
ancestral
instituted
##has
noises
prophecy
taxation
eminent
vivid
pol
##bol
dart
indirect
multimedia
notebook
upside
displaying
adrenaline
referenced
geometric
##iving
progression
##ddy
blunt
announce
##far
implementing
##lav
aggression
liaison
cooler
cares
headache
plantations
gorge
dots
impulse
thickness
ashamed
averaging
kathy
obligation
precursor
fowler
symmetry
thee
hears
##rai
undergoing
ads
butcher
bowler
##lip
cigarettes
subscription
goodness
##ically
browne
##hos
##tech
kyoto
donor
##erty
damaging
friction
drifting
expeditions
hardened
prostitution
fauna
blankets
claw
tossing
snarled
butterflies
recruits
investigative
coated
healed
communal
xiii
academics
boone
psychologist
restless
lahore
stephens
mba
brendan
foreigners
printer
##pc
ached
explode
27th
deed
scratched
dared
##pole
cardiac
1780
okinawa
proto
commando
compelled
oddly
electrons
##base
replica
thanksgiving
##rist
sheila
deliberate
stafford
tidal
representations
hercules
##path
##iated
kidnapping
lenses
##tling
deficit
samoa
mouths
consuming
computational
maze
granting
smirk
razor
fixture
ideals
inviting
aiden
nominal
##vs
issuing
julio
pitt
ramsey
docks
##oss
exhaust
##owed
bavarian
draped
anterior
mating
ethiopian
explores
noticing
##nton
discarded
convenience
hoffman
endowment
beasts
cartridge
mormon
paternal
probe
sleeves
interfere
lump
deadline
##rail
jenks
bulldogs
scrap
alternating
justified
reproductive
nam
seize
descending
secretariat
kirby
coupe
grouped
smash
panther
sedan
tapping
##18
lola
cheer
germanic
unfortunate
##eter
unrelated
##fan
subordinate
##sdale
suzanne
advertisement
##ility
horsepower
##lda
cautiously
discourse
luigi
##mans
##fields
noun
prevalent
mao
schneider
everett
surround
governorate
kira
##avia
westward
##take
misty
rails
sustainability
unused
##rating
packs
toast
unwilling
regulate
thy
suffrage
nile
awe
assam
definitions
travelers
affordable
##rb
conferred
sells
undefeated
beneficial
torso
basal
repeating
remixes
##pass
bahrain
cables
fang
##itated
excavated
numbering
statutory
##rey
deluxe
##lian
forested
ramirez
derbyshire
zeus
slamming
transfers
astronomer
banana
lottery
histories
bamboo
##uchi
resurrection
posterior
bowls
vaguely
##thi
thou
preserving
tensed
offence
##inas
meyrick
callum
ridden
watt
langdon
tying
lowland
snorted
daring
truman
##hale
##girl
aura
overly
filing
weighing
goa
infections
philanthropist
saunders
eponymous
##owski
latitude
perspectives
reviewing
mets
commandant
radial
##kha
flashlight
reliability
koch
vowels
amazed
elaine
supper
##rth
##encies
predator
debated
soviets
cola
##boards
##nah
compartment
crooked
arbitrary
fourteenth
##ctive
havana
majors
steelers
clips
profitable
ambush
exited
packers
##tile
nude
cracks
fungi
##е
limb
trousers
josie
shelby
tens
frederic
##ος
definite
smoothly
constellation
insult
baton
discs
lingering
##nco
conclusions
lent
staging
becker
grandpa
shaky
##tron
einstein
obstacles
adverse
economically
##moto
mccartney
thor
dismissal
motions
readings
nostrils
treatise
##pace
squeezing
evidently
prolonged
1783
venezuelan
marguerite
beirut
takeover
shareholders
##vent
denise
digit
airplay
norse
##bbling
imaginary
pills
hubert
blaze
vacated
eliminating
##ello
vine
mansfield
##tty
retrospective
barrow
borne
clutch
bail
forensic
weaving
##nett
##witz
desktop
citadel
promotions
worrying
dorset
ieee
subdivided
##iating
manned
expeditionary
pickup
synod
chuckle
barney
##rz
##ffin
functionality
karachi
litigation
meanings
turbo
anders
##ffed
execute
curl
oppose
ankles
typhoon
##د
##ache
##asia
linguistics
compassion
pressures
grazing
perfection
##iting
immunity
monopoly
muddy
backgrounds
namibia
francesca
monitors
attracting
stunt
tuition
##ии
vegetable
##mates
##quent
mgm
jen
complexes
forts
##ond
cellar
bites
seventeenth
royals
flemish
failures
mast
charities
##cular
peruvian
capitals
macmillan
ipswich
outward
frigate
postgraduate
folds
employing
##ouse
concurrently
fiery
##tai
contingent
nightmares
monumental
nicaragua
##kowski
lizard
fielding
gig
reject
##pad
harding
##ipe
coastline
##cin
##nos
beethoven
humphrey
innovations
##tam
##nge
norris
doris
solicitor
huang
obey
##lc
niagara
##tton
shelves
aug
bourbon
curry
nightclub
specifications
hilton
##ndo
centennial
dispersed
worm
neglected
briggs
kuala
uneasy
plc
##nstein
##bound
##aking
##burgh
awaiting
pronunciation
##bbed
##quest
optimal
raped
greens
presided
brenda
worries
##life
venetian
marxist
turnout
##lius
refined
braced
sins
grasped
sunderland
nickel
speculated
lowell
cyrillic
communism
fundraising
resembling
colonists
mutant
freddie
usc
##mos
gratitude
##run
mural
##lous
chemist
reminds
28th
steals
tess
pietro
##ingen
promoter
microphone
honoured
rai
sant
##qui
feather
##nson
burlington
kurdish
terrorists
deborah
sickness
##wed
##eet
hazard
irritated
desperation
veil
clarity
##rik
jewels
xv
##gged
##ows
##cup
berkshire
unfair
mysteries
orchid
winced
exhaustion
renovations
stranded
obe
infinity
##nies
adapt
redevelopment
thanked
registry
olga
domingo
noir
tudor
##atus
commenting
behaviors
##ais
crisp
pauline
probable
stirling
wigan
##bian
paralympics
panting
surpassed
##rew
luca
barred
pony
famed
##sters
cassandra
waiter
carolyn
exported
##orted
andres
destructive
deeds
jonah
castles
vacancy
suv
##glass
1788
orchard
yep
famine
belarusian
sprang
##forth
skinny
##mis
administrators
rotterdam
zambia
zhao
boiler
discoveries
##ride
##physics
lucius
disappointing
outreach
spoon
##frame
qualifications
unanimously
enjoys
regency
##iidae
stade
realism
veterinary
rodgers
dump
alain
chestnut
castile
censorship
rumble
gibbs
##itor
communion
reggae
inactivated
logs
loads
##houses
homosexual
##iano
informs
##cas
phrases
plaster
linebacker
ambrose
kaiser
fascinated
limerick
recruitment
forge
mastered
##nding
leinster
rooted
threaten
##strom
borneo
##hes
suggestions
scholarships
propeller
documentaries
patronage
coats
constructing
invest
neurons
comet
entirety
shouts
identities
annoying
unchanged
wary
##antly
##ogy
neat
oversight
##kos
phillies
replay
constance
##kka
incarnation
humble
skies
minus
##acy
smithsonian
##chel
guerrilla
jar
cadets
##plate
surplus
audit
##aru
cracking
joanna
louisa
pacing
##lights
intentionally
##iri
diner
nwa
imprint
australians
tong
unprecedented
bunker
specialists
ark
nichols
railing
leaked
pedal
##uka
shrub
longing
roofs
v8
captains
neural
tuned
##ntal
##jet
emission
medina
frantic
codex
definitive
sid
abolition
intensified
stocks
enrique
sustain
genoa
oxide
##written
clues
##gers
tributaries
fragment
venom
##rity
##ente
##sca
muffled
vain
sire
laos
##ingly
##hana
hastily
snapping
surfaced
sentiment
motive
##oft
contests
approximate
mesa
luckily
dinosaur
exchanges
propelled
accord
bourne
relieve
tow
masks
offended
##ues
cynthia
##mmer
rains
bartender
zinc
reviewers
lois
##sai
legged
arrogant
rafe
rosie
comprise
handicap
blockade
inlet
lagoon
copied
drilling
shelley
petals
##inian
mandarin
obsolete
##inated
onward
arguably
productivity
cindy
praising
seldom
busch
discusses
raleigh
shortage
ranged
stanton
encouragement
firstly
conceded
overs
temporal
##uke
cbe
##bos
woo
certainty
pumps
##pton
stalked
##uli
lizzie
periodic
thieves
weaker
##night
gases
shoving
chooses
wc
##chemical
prompting
weights
##kill
robust
flanked
sticky
tuberculosis
##eb
##eal
christchurch
resembled
wallet
reese
inappropriate
pictured
distract
fixing
fiddle
giggled
burger
heirs
hairy
mechanic
torque
apache
obsessed
chiefly
cheng
logging
##tag
extracted
meaningful
numb
##vsky
gloucestershire
reminding
##bay
unite
##lit
breeds
diminished
clown
glove
1860s
##ن
##ug
archibald
focal
freelance
sliced
depiction
##yk
organism
switches
sights
stray
crawling
##ril
lever
leningrad
interpretations
loops
anytime
reel
alicia
delighted
##ech
inhaled
xiv
suitcase
bernie
vega
licenses
northampton
exclusion
induction
monasteries
racecourse
homosexuality
##right
##sfield
##rky
dimitri
michele
alternatives
commentators
genuinely
objected
pork
hospitality
fencing
stephan
warships
peripheral
wit
drunken
wrinkled
quentin
spends
departing
chung
numerical
spokesperson
##zone
johannesburg
caliber
killers
##udge
assumes
neatly
demographic
abigail
bloc
##vel
mounting
##lain
bentley
slightest
xu
recipients
##jk
merlin
##writer
seniors
prisons
blinking
hindwings
flickered
kappa
##hel
80s
strengthening
appealing
brewing
gypsy
mali
lashes
hulk
unpleasant
harassment
treaties
predict
instrumentation
pulp
troupe
boiling
mantle
##ffe
##vn
dividing
handles
verbs
##onal
coconut
senegal
thorough
gum
momentarily
##sto
cocaine
panicked
destined
##turing
teatro
denying
weary
captained
mans
##hawks
##code
wakefield
bollywood
thankfully
##16
cyril
##wu
amendments
##bahn
consultation
stud
reflections
kindness
1787
internally
##ovo
mosaic
distribute
paddy
seeming
143
##hic
piers
##15
##mura
##verse
popularly
winger
kang
sentinel
mccoy
##anza
covenant
##bag
verge
fireworks
suppress
thrilled
dominate
##jar
swansea
##60
142
reconciliation
##ndi
stiffened
cue
dorian
##uf
damascus
amor
foremost
##aga
porsche
unseen
dir
##had
##azi
stony
lexi
melodies
##nko
angular
integer
podcast
ants
inherent
jaws
justify
persona
##olved
josephine
##nr
##ressed
customary
flashes
gala
cyrus
glaring
backyard
ariel
physiology
greenland
stir
avon
atletico
finch
methodology
ked
##lent
mas
catholicism
townsend
branding
quincy
fits
containers
1777
ashore
aragon
##19
forearm
poisoning
##sd
adopting
conquer
grinding
amnesty
keller
finances
evaluate
forged
lankan
instincts
##uto
guam
bosnian
photographed
workplace
desirable
protector
##dog
allocation
intently
encourages
willy
##sten
bodyguard
electro
brighter
##ν
bihar
##chev
lasts
opener
amphibious
sal
verde
arte
##cope
captivity
vocabulary
yields
##tted
agreeing
desmond
pioneered
##chus
strap
campaigned
railroads
##ович
emblem
##dre
stormed
##ulous
marijuana
northumberland
##gn
##nath
bowen
landmarks
beaumont
##qua
danube
##bler
attorneys
flyers
critique
villains
cass
mutation
##0s
colombo
mckay
motif
sampling
concluding
syndicate
##rell
neon
stables
warnings
clint
mourning
wilkinson
##tated
merrill
leopard
evenings
exhaled
emil
sonia
ezra
discrete
stove
farrell
fifteenth
prescribed
superhero
##rier
worms
helm
wren
##duction
##hc
expo
##rator
hq
unfamiliar
antony
prevents
acceleration
fiercely
mari
painfully
calculations
cheaper
clifton
irvine
davenport
mozambique
##np
pierced
##evich
wonders
##wig
##cate
##iling
crusade
##uel
enzymes
reasonably
mls
##coe
mater
ambition
bunny
eliot
kernel
##fin
asphalt
headmaster
torah
aden
lush
pins
waived
##care
##yas
joao
substrate
enforce
##grad
##ules
alvarez
selections
epidemic
tempted
##bit
bremen
translates
ensured
waterfront
29th
forrest
manny
malone
kramer
reigning
cookies
simpler
absorption
engraved
##ffy
evaluated
1778
haze
comforting
crossover
##abe
thorn
##rift
##imo
##pop
suppression
fatigue
cutter
##tr
wurttemberg
##orf
enforced
hovering
proprietary
gb
samurai
syllable
ascent
lacey
tick
lars
tractor
merchandise
rep
bouncing
defendants
##yre
huntington
##ground
##oko
standardized
##hor
##hima
assassinated
predecessors
rainy
liar
assurance
lyrical
##uga
secondly
flattened
parameter
undercover
##mity
bordeaux
punish
ridges
markers
exodus
inactive
hesitate
debbie
nyc
pledge
savoy
nagar
offset
organist
##tium
hesse
marin
converting
##iver
diagram
propulsion
validity
reverted
supportive
##dc
ministries
clans
responds
proclamation
##inae
##ø
##rea
ein
pleading
patriot
sf
birch
islanders
strauss
hates
##dh
brandenburg
concession
##ob
1900s
killings
textbook
antiquity
cinematography
wharf
embarrassing
setup
creed
farmland
inequality
centred
signatures
fallon
##ingham
##uts
ceylon
gazing
directive
laurie
##tern
globally
##uated
##dent
allah
excavation
threads
##cross
frantically
icc
utilize
determines
respiratory
thoughtful
receptions
##dicate
merging
chandra
seine
builders
builds
diagnostic
dev
visibility
goddamn
analyses
dhaka
proves
chancel
concurrent
curiously
canadians
pumped
restoring
1850s
turtles
jaguar
sinister
spinal
traction
declan
vows
1784
glowed
capitalism
swirling
install
universidad
##lder
##oat
soloist
##genic
##oor
coincidence
beginnings
nissan
dip
resorts
caucasus
combustion
infectious
##eno
pigeon
serpent
##itating
conclude
masked
salad
jew
##gr
surreal
toni
##wc
harmonica
##gins
##etic
##coat
fishermen
intending
bravery
##wave
klaus
titan
wembley
taiwanese
ransom
40th
incorrect
hussein
eyelids
jp
cooke
dramas
utilities
##etta
##print
eisenhower
principally
granada
lana
##rak
openings
concord
##bl
bethany
connie
morality
sega
##mons
##nard
earnings
##kara
##cine
wii
communes
##rel
coma
composing
softened
severed
grapes
##17
nguyen
analyzed
warlord
hubbard
heavenly
behave
slovenian
##hit
##ony
hailed
filmmakers
trance
caldwell
skye
unrest
coward
likelihood
##aging
bern
sci
taliban
honolulu
propose
##wang
browser
imagining
cobra
contributes
dukes
instinctively
conan
violinist
##ores
accessories
gradual
##amp
quotes
sioux
##dating
undertake
intercepted
sparkling
compressed
fungus
tombs
haley
imposing
rests
degradation
lincolnshire
retailers
wetlands
tulsa
distributor
dungeon
nun
greenhouse
convey
atlantis
aft
exits
oman
dresser
lyons
##sti
joking
eddy
judgement
omitted
digits
##cts
##game
juniors
##rae
cents
stricken
##ngo
wizards
weir
breton
technician
fibers
liking
royalty
##cca
154
persia
terribly
magician
##rable
##unt
vance
cafeteria
booker
camille
warmer
##static
consume
cavern
gaps
compass
contemporaries
foyer
soothing
graveyard
maj
plunged
blush
##wear
cascade
demonstrates
ordinance
##nov
boyle
##lana
rockefeller
shaken
banjo
izzy
##ense
breathless
vines
##32
##eman
alterations
chromosome
dwellings
feudal
mole
catalonia
relics
tenant
mandated
##fm
fridge
hats
honesty
patented
raul
heap
cruisers
accusing
enlightenment
infants
wherein
chatham
contractors
affinity
hc
osborne
piston
traps
maturity
##rana
lagos
##zal
peering
##nay
attendant
dealers
protocols
subset
prospects
biographical
##cre
artery
##zers
insignia
nuns
endured
##eration
recommend
schwartz
serbs
berger
cromwell
crossroads
##ctor
enduring
clasped
grounded
##bine
marseille
twitched
choke
catalyst
moldova
italians
##tist
disastrous
wee
##oured
##nti
wwf
nope
##piration
##asa
expresses
thumbs
##nza
coca
1781
cheating
##ption
skipped
sensory
heidelberg
spies
satan
dangers
semifinal
bohemia
whitish
confusing
shipbuilding
relies
surgeons
landings
ravi
baku
moor
suffix
alejandro
##yana
litre
upheld
##unk
rajasthan
##rek
coaster
insists
posture
scenarios
etienne
favoured
appoint
transgender
elephants
poked
greenwood
defences
fulfilled
militant
somali
1758
chalk
potent
##ucci
migrants
wink
assistants
nos
restriction
activism
niger
##ario
colon
shaun
##sat
daphne
##erated
swam
congregations
reprise
considerations
magnet
playable
xvi
##р
overthrow
tobias
knob
chavez
coding
##mers
propped
katrina
orient
newcomer
##suke
temperate
##pool
farmhouse
interrogation
##vd
committing
##vert
forthcoming
strawberry
joaquin
macau
ponds
shocking
siberia
##cellular
chant
contributors
##nant
##ologists
sped
absorb
hail
1782
spared
##hore
barbados
karate
opus
originates
saul
##xie
evergreen
leaped
##rock
correlation
exaggerated
weekday
unification
bump
tracing
brig
afb
pathways
utilizing
##ners
mod
disturbance
kneeling
##stad
##guchi
100th
pune
##thy
decreasing
manipulation
miriam
academia
ecosystem
occupational
rbi
##lem
rift
##14
rotary
stacked
incorporation
awakening
generators
guerrero
racist
##omy
cyber
derivatives
culminated
allie
annals
panzer
sainte
pops
austro
##vate
algerian
politely
nicholson
mornings
educate
tastes
thrill
dartmouth
##gating
##jee
regan
differing
concentrating
choreography
divinity
##media
pledged
alexandre
routing
gregor
madeline
##idal
apocalypse
##hora
gunfire
culminating
elves
fined
liang
programmed
guessing
transparency
gabrielle
##gna
cancellation
flexibility
##lining
accession
shea
stronghold
nets
specializes
##rgan
abused
hasan
sgt
exceeding
##₄
admiration
supermarket
##ark
photographers
specialised
tilt
resonance
hmm
perfume
sami
threatens
garland
botany
guarding
boiled
greet
puppy
russo
supplier
wilmington
vibrant
vijay
##bius
paralympic
grumbled
paige
faa
licking
margins
hurricanes
##gong
fest
grenade
ripping
##uz
counseling
weigh
##sian
needles
wiltshire
edison
costly
##not
fulton
tramway
redesigned
staffordshire
cache
gasping
watkins
sleepy
candidacy
##group
monkeys
throbbing
##bid
##sos
berth
uzbekistan
vanderbilt
bothering
overturned
ballots
gem
##iger
sunglasses
subscribers
hooker
compelling
exceptionally
saloon
stab
##rdi
carla
terrifying
##vision
coil
##oids
satisfying
vendors
31st
mackay
deities
overlooked
ambient
bahamas
felipe
olympia
whirled
botanist
advertised
tugging
##dden
disciples
morales
unionist
rites
foley
morse
motives
creepy
##₀
soo
##sz
bargain
highness
frightening
turnpike
tory
reorganization
##cer
depict
biographer
##walk
unopposed
manifesto
##gles
institut
emile
accidental
kapoor
##dam
kilkenny
cortex
lively
##13
romanesque
jain
shan
cannons
##ood
##ske
petrol
echoing
amalgamated
disappears
cautious
proposes
sanctions
trenton
##ر
flotilla
aus
contempt
canary
cote
theirs
##hun
conceptual
deleted
fascinating
paso
blazing
elf
honourable
hutchinson
##eiro
##outh
##zin
surveyor
tee
amidst
wooded
reissue
intro
##ono
cobb
shelters
newsletter
hanson
brace
encoding
confiscated
dem
caravan
marino
melodic
cows
imam
##adi
##aneous
northward
searches
biodiversity
cora
roaring
##bers
connell
theologian
halo
compose
pathetic
unmarried
dynamo
##oot
calculation
toulouse
deserves
humour
nr
forgiveness
tam
undergone
martyr
pamela
myths
whore
counselor
hicks
heavens
battleship
electromagnetic
##bbs
stellar
establishments
presley
hopped
##chin
temptation
90s
wills
nas
##yuan
nhs
##nya
seminars
##yev
adaptations
gong
asher
indicator
sikh
tobago
cites
goin
##yte
satirical
##gies
characterised
correspond
bubbles
lure
participates
##vid
eruption
skate
therapeutic
1785
canals
wholesale
defaulted
sac
petit
##zzled
virgil
leak
ravens
portraying
##yx
ghetto
creators
dams
portray
vicente
##rington
fae
namesake
bounty
##arium
joachim
##ota
##iser
aforementioned
axle
snout
depended
dismantled
reuben
##ibly
gallagher
##lau
##pd
earnest
##ieu
##iary
inflicted
objections
##llar
gritted
##athy
jericho
##sea
##was
flick
underside
ceramics
undead
substituted
eastward
undoubtedly
wheeled
chimney
##iche
guinness
cb
##ager
siding
##bell
traitor
baptiste
disguised
inauguration
149
tipperary
choreographer
perched
warmed
stationary
eco
##ike
##ntes
bacterial
##aurus
flores
phosphate
##core
attacker
invaders
alvin
intersects
a1
indirectly
immigrated
businessmen
cornelius
valves
narrated
pill
sober
nationale
monastic
applicants
scenery
##jack
motifs
constitutes
##osh
jurisdictions
sd
tuning
irritation
woven
##uddin
fertility
gao
##erie
antagonist
impatient
glacial
hides
boarded
denominations
interception
##jas
cookie
nicola
##tee
algebraic
marquess
bahn
parole
buyers
bait
turbines
paperwork
bestowed
natasha
renee
oceans
purchases
157
vaccine
##tock
fixtures
playhouse
integrate
jai
oswald
intellectuals
##cky
booked
nests
mortimer
##isi
obsession
sept
##gler
##sum
scrutiny
simultaneous
squinted
##shin
collects
oven
shankar
penned
remarkably
##я
slips
luggage
spectral
1786
collaborations
louie
consolidation
##ailed
##ivating
hoover
blackpool
harness
ignition
vest
tails
belmont
mongol
skinner
##nae
visually
mage
derry
##tism
##unce
stevie
transitional
##rdy
redskins
drying
prep
prospective
##21
annoyance
oversee
##loaded
fills
##books
##iki
announces
fda
scowled
respects
prasad
mystic
tucson
##vale
revue
springer
bankrupt
1772
aristotle
salvatore
habsburg
##geny
dal
natal
nut
pod
chewing
darts
moroccan
walkover
rosario
lenin
punjabi
##ße
grossed
scattering
wired
invasive
polynomial
corridors
wakes
gina
portrays
##cratic
arid
retreating
erich
irwin
sniper
##dha
linen
lindsey
maneuver
butch
shutting
socio
bounce
commemorative
postseason
jeremiah
pines
275
mystical
beads
abbas
furnace
bidding
consulted
assaulted
empirical
rubble
enclosure
sob
weakly
cancel
polly
yielded
##emann
curly
prediction
battered
70s
vhs
jacqueline
render
sails
barked
detailing
grayson
riga
sloane
raging
##yah
herbs
bravo
##athlon
alloy
giggle
imminent
suffers
assumptions
waltz
##itate
accomplishments
##ited
bathing
remixed
deception
prefix
##emia
deepest
##tier
##eis
balkan
frogs
##rong
slab
##pate
philosophers
peterborough
grains
imports
dickinson
rwanda
##atics
1774
dirk
tablets
##rove
clone
##rice
caretaker
hostilities
mclean
##gre
regimental
treasures
norms
impose
tsar
tango
diplomacy
variously
complain
192
recognise
arrests
1779
celestial
pulitzer
##dus
bing
libretto
##moor
adele
splash
##rite
expectation
lds
confronts
##izer
spontaneous
harmful
wedge
entrepreneurs
buyer
##ope
bilingual
translate
rugged
conner
circulated
uae
eaton
##gra
##zzle
lingered
lockheed
vishnu
reelection
alonso
##oom
joints
yankee
headline
cooperate
heinz
laureate
invading
##sford
echoes
scandinavian
##dham
hugging
vitamin
salute
micah
hind
trader
##sper
radioactive
##ndra
militants
poisoned
ratified
remark
campeonato
deprived
wander
prop
##dong
outlook
##tani
##rix
##eye
chiang
darcy
##oping
mandolin
spice
statesman
babylon
182
walled
forgetting
afro
##cap
giorgio
buffer
##polis
planetary
##gis
overlap
terminals
kinda
centenary
##bir
arising
manipulate
elm
1770
##tad
chrysler
mapped
moose
pomeranian
quad
macarthur
assemblies
shoreline
recalls
stratford
##rted
noticeable
##evic
##rita
##sque
accustomed
supplying
tents
disgusted
vogue
sipped
filters
khz
reno
selecting
luftwaffe
mcmahon
tyne
masterpiece
carriages
collided
dunes
exercised
flare
remembers
muzzle
##mobile
heck
##rson
burgess
lunged
middleton
boycott
bilateral
##sity
hazardous
lumpur
multiplayer
spotlight
jackets
goldman
liege
porcelain
waterford
benz
attracts
hopeful
battling
ottomans
kensington
baked
hymns
cheyenne
lattice
levine
borrow
polymer
clashes
michaels
monitored
commitments
denounced
##25
##von
cavity
##oney
hobby
akin
##holders
futures
intricate
cornish
patty
##oned
illegally
dolphin
##lag
barlow
yellowish
maddie
apologized
luton
plagued
##puram
nana
##rds
sway
fanny
łodz
##rino
psi
suspicions
hanged
##eding
initiate
charlton
##por
nak
competent
analytical
annex
wardrobe
reservations
##rma
sect
fairfax
hedge
piled
buckingham
uneven
bauer
simplicity
snyder
interpret
accountability
donors
moderately
byrd
continents
##cite
##max
disciple
jamaican
nominees
##uss
mongolian
diver
attackers
eagerly
ideological
pillows
miracles
apartheid
revolver
sulfur
clinics
moran
##enko
katy
rhetoric
##icated
chronology
recycling
##hrer
elongated
mughal
pascal
profiles
vibration
databases
domination
##fare
##rant
matthias
digest
rehearsal
polling
weiss
initiation
reeves
clinging
flourished
impress
ngo
##hoff
##ume
buckley
symposium
rhythms
weed
emphasize
transforming
##taking
##gence
##yman
accountant
analyze
flicker
foil
priesthood
voluntarily
decreases
##80
##hya
slater
sv
charting
mcgill
##lde
moreno
##iu
besieged
zur
robes
##phic
admitting
deported
turmoil
peyton
earthquakes
##ares
nationalists
beau
clair
brethren
interrupt
welch
curated
galerie
requesting
164
##ested
impending
steward
viper
##vina
complaining
beautifully
brandy
foam
nl
1660
##cake
alessandro
punches
laced
explanations
##lim
attribute
clit
reggie
discomfort
##cards
smoothed
whales
##cene
adler
countered
duffy
disciplinary
widening
recipe
reliance
conducts
goats
gradient
preaching
##shaw
matilda
quasi
striped
meridian
cannabis
cordoba
certificates
##agh
##tering
graffiti
hangs
pilgrims
repeats
##ych
revive
urine
etat
##hawk
fueled
belts
fuzzy
susceptible
##hang
mauritius
salle
sincere
beers
hooks
##cki
arbitration
entrusted
advise
sniffed
seminar
junk
donnell
processors
principality
strapped
celia
mendoza
everton
fortunes
prejudice
starving
reassigned
steamer
##lund
tuck
evenly
foreman
##ffen
dans
envisioned
slit
##xy
baseman
liberia
rosemary
##weed
electrified
periodically
potassium
stride
contexts
sperm
slade
mariners
influx
bianca
subcommittee
##rane
spilling
icao
estuary
##nock
delivers
##ulata
isa
mira
bohemian
dessert
##sbury
welcoming
proudly
slowing
##chs
musee
ascension
russ
##vian
waits
##psy
africans
exploit
##morphic
gov
eccentric
crab
peck
##ull
entrances
formidable
marketplace
groom
bolted
metabolism
patton
robbins
courier
payload
endure
##ifier
andes
refrigerator
##pr
ornate
##uca
ruthless
illegitimate
masonry
strasbourg
bikes
adobe
##³
apples
quintet
willingly
niche
bakery
corpses
energetic
##cliffe
##sser
##ards
centimeters
centro
fuscous
cretaceous
rancho
##yde
andrei
telecom
tottenham
oasis
ordination
vulnerability
presiding
corey
penguins
sims
##pis
malawi
piss
##48
correction
##cked
##ffle
##ryn
countdown
detectives
psychiatrist
psychedelic
dinosaurs
blouse
##get
choi
vowed
##oz
randomly
##pol
49ers
scrub
blanche
bruins
dusseldorf
##using
unwanted
##ums
212
dominique
elevations
headlights
laguna
##oga
1750
famously
ignorance
shrewsbury
##aine
ajax
breuning
confederacy
greco
overhaul
##screen
paz
skirts
disagreement
cruelty
jagged
phoebe
shifter
hovered
viruses
##wes
mandy
##lined
##gc
landlord
squirrel
dashed
##ι
ornamental
gag
wally
grange
literal
spurs
undisclosed
proceeding
yin
##text
billie
orphan
spanned
humidity
indy
weighted
presentations
explosions
lucian
##tary
vaughn
hindus
##anga
##hell
psycho
daytona
protects
efficiently
rematch
sly
tandem
##oya
rebranded
impaired
hee
metropolis
peach
godfrey
diaspora
ethnicity
prosperous
gleaming
dar
grossing
playback
##rden
stripe
pistols
##tain
births
labelled
##cating
rudy
alba
##onne
aquarium
hostility
##gb
##tase
shudder
sumatra
hardest
lakers
consonant
creeping
demos
homicide
capsule
zeke
liberties
expulsion
pueblo
##comb
trait
transporting
##ddin
##neck
##yna
depart
gregg
mold
ledge
hangar
oldham
playboy
termination
analysts
gmbh
romero
##itic
insist
cradle
filthy
brightness
slash
shootout
deposed
bordering
##truct
isis
microwave
tumbled
sheltered
cathy
werewolves
messy
andersen
convex
clapped
clinched
satire
wasting
edo
rufus
##jak
mont
##etti
poznan
##keeping
restructuring
transverse
##rland
azerbaijani
slovene
gestures
roommate
choking
shear
##quist
vanguard
oblivious
##hiro
disagreed
baptism
##lich
coliseum
##aceae
salvage
societe
cory
locke
relocation
relying
versailles
ahl
swelling
##elo
cheerful
##word
##edes
sarajevo
obstacle
diverted
##nac
messed
thoroughbred
fluttered
utrecht
chewed
acquaintance
assassins
dispatch
mirza
##wart
nike
salzburg
swell
yen
##gee
idle
ligue
samson
##nds
##igh
playful
spawned
##cise
tease
##case
burgundy
##bot
stirring
skeptical
interceptions
marathi
##dies
bedrooms
aroused
pinch
##lik
preferences
tattoos
buster
digitally
projecting
rust
##ital
kitten
priorities
addison
pseudo
##guard
dusk
icons
sermon
##psis
##iba
##lift
##xt
truce
rink
##dah
##wy
defects
psychiatry
offences
calculate
glucose
##iful
##rized
##unda
francaise
##hari
richest
warwickshire
carly
1763
purity
redemption
lending
##cious
muse
bruises
cerebral
aero
carving
##name
preface
terminology
invade
monty
##int
anarchist
blurred
##iled
rossi
treats
guts
foothills
ballads
undertaking
premise
cecilia
affiliates
blasted
conditional
wilder
minors
drone
rudolph
buffy
swallowing
horton
attested
##hop
rutherford
howell
primetime
livery
penal
##bis
minimize
hydro
wrecked
wrought
palazzo
##gling
cans
vernacular
friedman
nobleman
shale
walnut
danielle
##ection
##tley
sears
##kumar
chords
lend
flipping
streamed
dracula
gallons
sacrifices
gamble
orphanage
##iman
mckenzie
##gible
boxers
daly
##balls
##ان
##ific
##rative
##iq
exploited
slated
##uity
circling
hillary
pinched
goldberg
provost
campaigning
piles
ironically
jong
mohan
successors
usaf
##tem
##ught
autobiographical
haute
preserves
##ending
acquitted
comparisons
hydroelectric
gangs
cypriot
torpedoes
rushes
derive
bumps
instability
fiat
pets
##mbe
silas
dye
reckless
settler
##itation
heats
##writing
canonical
maltese
fins
mushroom
stacy
aspen
avid
##kur
##loading
vickers
gaston
hillside
statutes
wilde
gail
kung
sabine
comfortably
motorcycles
##rgo
pneumonia
fetch
##sonic
axel
faintly
parallels
##oop
mclaren
spouse
compton
interdisciplinary
miner
##eni
clamped
##chal
##llah
separates
versa
##mler
scarborough
labrador
##lity
##osing
rutgers
hurdles
como
166
burt
divers
##100
wichita
cade
coincided
##erson
bruised
mla
##pper
vineyard
##ili
##brush
notch
mentioning
jase
hearted
kits
doe
##acle
pomerania
##ady
ronan
seizure
pavel
problematic
##zaki
domenico
[...]
